{
  "version": "1.0",
  "truncation": null,
  "padding": null,
  "added_tokens": [
    {
      "id": 0,
      "content": "<s>",
      "single_word": false,
      "lstrip": false,
      "rstrip": false,
      "normalized": false,
      "special": true
    },
    {
      "id": 1,
      "content": "</s>",
      "single_word": false,
      "lstrip": false,
      "rstrip": false,
      "normalized": false,
      "special": true
    },
    {
      "id": 2,
      "content": "<pad>",
      "single_word": false,
      "lstrip": false,
      "rstrip": false,
      "normalized": false,
      "special": true
    },
    {
      "id": 3,
      "content": "<unk>",
      "single_word": false,
      "lstrip": false,
      "rstrip": false,
      "normalized": false,
      "special": true
    },
    {
      "id": 4,
      "content": "<system>",
      "single_word": false,
      "lstrip": false,
      "rstrip": false,
      "normalized": false,
      "special": true
    },
    {
      "id": 5,
      "content": "<assistant>",
      "single_word": false,
      "lstrip": false,
      "rstrip": false,
      "normalized": false,
      "special": true
    },
    {
      "id": 6,
      "content": "<user>",
      "single_word": false,
      "lstrip": false,
      "rstrip": false,
      "normalized": false,
      "special": true
    },
    {
      "id": 7,
      "content": "<think>",
      "single_word": false,
      "lstrip": false,
      "rstrip": false,
      "normalized": false,
      "special": true
    },
    {
      "id": 8,
      "content": "</think>",
      "single_word": false,
      "lstrip": false,
      "rstrip": false,
      "normalized": false,
      "special": true
    },
    {
      "id": 9,
      "content": "<answer>",
      "single_word": false,
      "lstrip": false,
      "rstrip": false,
      "normalized": false,
      "special": true
    },
    {
      "id": 10,
      "content": "</answer>",
      "single_word": false,
      "lstrip": false,
      "rstrip": false,
      "normalized": false,
      "special": true
    },
    {
      "id": 11,
      "content": "<image>",
      "single_word": false,
      "lstrip": false,
      "rstrip": false,
      "normalized": false,
      "special": true
    },
    {
      "id": 12,
      "content": "<tool>",
      "single_word": false,
      "lstrip": false,
      "rstrip": false,
      "normalized": false,
      "special": true
    },
    {
      "id": 13,
      "content": "</tool>",
      "single_word": false,
      "lstrip": false,
      "rstrip": false,
      "normalized": false,
      "special": true
    }
  ],
  "normalizer": null,
  "pre_tokenizer": {
    "type": "ByteLevel",
    "add_prefix_space": false,
    "trim_offsets": true,
    "use_regex": true
  },
  "post_processor": {
    "type": "ByteLevel",
    "add_prefix_space": true,
    "trim_offsets": false,
    "use_regex": true
  },
  "decoder": {
    "type": "ByteLevel",
    "add_prefix_space": true,
    "trim_offsets": true,
    "use_regex": true
  },
  "model": {
    "type": "BPE",
    "dropout": null,
    "unk_token": null,
    "continuing_subword_prefix": null,
    "end_of_word_suffix": null,
    "fuse_unk": false,
    "byte_fallback": false,
    "ignore_merges": false,
    "vocab": {
      "<s>": 0,
      "</s>": 1,
      "<pad>": 2,
      "<unk>": 3,
      "<system>": 4,
      "<assistant>": 5,
      "<user>": 6,
      "<think>": 7,
      "</think>": 8,
      "<answer>": 9,
      "</answer>": 10,
      "<image>": 11,
      "<tool>": 12,
      "</tool>": 13,
      "!": 14,
      "\"": 15,
      "#": 16,
      "$": 17,
      "%": 18,
      "&": 19,
      "'": 20,
      "(": 21,
      ")": 22,
      "*": 23,
      "+": 24,
      ",": 25,
      "-": 26,
      ".": 27,
      "/": 28,
      "0": 29,
      "1": 30,
      "2": 31,
      "3": 32,
      "4": 33,
      "5": 34,
      "6": 35,
      "7": 36,
      "8": 37,
      "9": 38,
      ":": 39,
      ";": 40,
      "<": 41,
      "=": 42,
      ">": 43,
      "?": 44,
      "@": 45,
      "A": 46,
      "B": 47,
      "C": 48,
      "D": 49,
      "E": 50,
      "F": 51,
      "G": 52,
      "H": 53,
      "I": 54,
      "J": 55,
      "K": 56,
      "L": 57,
      "M": 58,
      "N": 59,
      "O": 60,
      "P": 61,
      "Q": 62,
      "R": 63,
      "S": 64,
      "T": 65,
      "U": 66,
      "V": 67,
      "W": 68,
      "X": 69,
      "Y": 70,
      "Z": 71,
      "[": 72,
      "\\": 73,
      "]": 74,
      "^": 75,
      "_": 76,
      "`": 77,
      "a": 78,
      "b": 79,
      "c": 80,
      "d": 81,
      "e": 82,
      "f": 83,
      "g": 84,
      "h": 85,
      "i": 86,
      "j": 87,
      "k": 88,
      "l": 89,
      "m": 90,
      "n": 91,
      "o": 92,
      "p": 93,
      "q": 94,
      "r": 95,
      "s": 96,
      "t": 97,
      "u": 98,
      "v": 99,
      "w": 100,
      "x": 101,
      "y": 102,
      "z": 103,
      "{": 104,
      "|": 105,
      "}": 106,
      "~": 107,
      "¡": 108,
      "¢": 109,
      "£": 110,
      "¤": 111,
      "¥": 112,
      "¦": 113,
      "§": 114,
      "¨": 115,
      "©": 116,
      "ª": 117,
      "«": 118,
      "¬": 119,
      "®": 120,
      "¯": 121,
      "°": 122,
      "±": 123,
      "²": 124,
      "³": 125,
      "´": 126,
      "µ": 127,
      "¶": 128,
      "·": 129,
      "¸": 130,
      "¹": 131,
      "º": 132,
      "»": 133,
      "¼": 134,
      "½": 135,
      "¾": 136,
      "¿": 137,
      "À": 138,
      "Á": 139,
      "Â": 140,
      "Ã": 141,
      "Ä": 142,
      "Å": 143,
      "Æ": 144,
      "Ç": 145,
      "È": 146,
      "É": 147,
      "Ê": 148,
      "Ë": 149,
      "Ì": 150,
      "Í": 151,
      "Î": 152,
      "Ï": 153,
      "Ð": 154,
      "Ñ": 155,
      "Ò": 156,
      "Ó": 157,
      "Ô": 158,
      "Õ": 159,
      "Ö": 160,
      "×": 161,
      "Ø": 162,
      "Ù": 163,
      "Ú": 164,
      "Û": 165,
      "Ü": 166,
      "Ý": 167,
      "Þ": 168,
      "ß": 169,
      "à": 170,
      "á": 171,
      "â": 172,
      "ã": 173,
      "ä": 174,
      "å": 175,
      "æ": 176,
      "ç": 177,
      "è": 178,
      "é": 179,
      "ê": 180,
      "ë": 181,
      "ì": 182,
      "í": 183,
      "î": 184,
      "ï": 185,
      "ð": 186,
      "ñ": 187,
      "ò": 188,
      "ó": 189,
      "ô": 190,
      "õ": 191,
      "ö": 192,
      "÷": 193,
      "ø": 194,
      "ù": 195,
      "ú": 196,
      "û": 197,
      "ü": 198,
      "ý": 199,
      "þ": 200,
      "ÿ": 201,
      "Ā": 202,
      "ā": 203,
      "Ă": 204,
      "ă": 205,
      "Ą": 206,
      "ą": 207,
      "Ć": 208,
      "ć": 209,
      "Ĉ": 210,
      "ĉ": 211,
      "Ċ": 212,
      "ċ": 213,
      "Č": 214,
      "č": 215,
      "Ď": 216,
      "ď": 217,
      "Đ": 218,
      "đ": 219,
      "Ē": 220,
      "ē": 221,
      "Ĕ": 222,
      "ĕ": 223,
      "Ė": 224,
      "ė": 225,
      "Ę": 226,
      "ę": 227,
      "Ě": 228,
      "ě": 229,
      "Ĝ": 230,
      "ĝ": 231,
      "Ğ": 232,
      "ğ": 233,
      "Ġ": 234,
      "ġ": 235,
      "Ģ": 236,
      "ģ": 237,
      "Ĥ": 238,
      "ĥ": 239,
      "Ħ": 240,
      "ħ": 241,
      "Ĩ": 242,
      "ĩ": 243,
      "Ī": 244,
      "ī": 245,
      "Ĭ": 246,
      "ĭ": 247,
      "Į": 248,
      "į": 249,
      "İ": 250,
      "ı": 251,
      "Ĳ": 252,
      "ĳ": 253,
      "Ĵ": 254,
      "ĵ": 255,
      "Ķ": 256,
      "ķ": 257,
      "ĸ": 258,
      "Ĺ": 259,
      "ĺ": 260,
      "Ļ": 261,
      "ļ": 262,
      "Ľ": 263,
      "ľ": 264,
      "Ŀ": 265,
      "ŀ": 266,
      "Ł": 267,
      "ł": 268,
      "Ń": 269,
      "ĠĠ": 270,
      "ä¸": 271,
      "ï¼": 272,
      "çļ": 273,
      "çļĦ": 274,
      "ï¼Į": 275,
      "ãĢ": 276,
      "ĠĠĠĠ": 277,
      "ãĢĤ": 278,
      "äº": 279,
      "ä»": 280,
      "åı": 281,
      "æľ": 282,
      "è¿": 283,
      "æĪ": 284,
      "åħ": 285,
      "ä½": 286,
      "æĺ": 287,
      "å¤": 288,
      "è¯": 289,
      "ä¸Ģ": 290,
      "å®": 291,
      "æĸ": 292,
      "åĪ": 293,
      "er": 294,
      "çĶ": 295,
      "åĴ": 296,
      "åľ": 297,
      "åĴĮ": 298,
      "in": 299,
      "åĲ": 300,
      "åĬ": 301,
      "on": 302,
      "ç»": 303,
      "ä¹": 304,
      "æĺ¯": 305,
      "re": 306,
      "ĠĠĠ": 307,
      "å°": 308,
      "åŃ": 309,
      "Ġt": 310,
      "ä¸ª": 311,
      "at": 312,
      "ä»¥": 313,
      "è®": 314,
      "ĠĠĠĠĠĠĠĠ": 315,
      "åľ¨": 316,
      "ãĢģ": 317,
      "st": 318,
      "æĪĳ": 319,
      "or": 320,
      "äºº": 321,
      "ĥ½": 322,
      "en": 323,
      "ï¼ļ": 324,
      "æľī": 325,
      "æĹ": 326,
      "åı¯": 327,
      "è¿Ļ": 328,
      "äºĨ": 329,
      "åĽ": 330,
      "Ġa": 331,
      "åº": 332,
      "æĿ": 333,
      "éĩ": 334,
      "å¹": 335,
      "å¸": 336,
      "ä¼": 337,
      "éĢ": 338,
      "ä¸Ń": 339,
      "èĥ½": 340,
      "se": 341,
      "è¡": 342,
      "çļĦæ": 343,
      "åĩ": 344,
      "å·": 345,
      "åĮ": 346,
      "he": 347,
      "al": 348,
      "æĸĩ": 349,
      "å¯": 350,
      "è¦": 351,
      "é¢": 352,
      "å¾": 353,
      "åĨ": 354,
      "è¦ģ": 355,
      "è§": 356,
      "ä¸º": 357,
      "çī": 358,
      "ä»¬": 359,
      "ç§": 360,
      "ĉĉ": 361,
      "å¥": 362,
      "éĹ": 363,
      "å¼": 364,
      "çĶ¨": 365,
      "çİ": 366,
      "es": 367,
      "ion": 368,
      "ä¸į": 369,
      "æķ": 370,
      "it": 371,
      "èĢ": 372,
      "æĢ": 373,
      "å½": 374,
      "æŀ": 375,
      "Ġc": 376,
      "æı": 377,
      "æī": 378,
      "çĶŁ": 379,
      "æŃ": 380,
      "åı¯ä»¥": 381,
      "çŃ": 382,
      "ĠĠĠĠĠĠĠ": 383,
      "le": 384,
      "åį": 385,
      "éĿ": 386,
      "ä¿": 387,
      "an": 388,
      "æł": 389,
      "æĬ": 390,
      "ing": 391,
      "çĽ": 392,
      "æ³": 393,
      "ar": 394,
      "âĢ": 395,
      "æĿ¥": 396,
      "èĩ": 397,
      "æĦ": 398,
      "Ġ=": 399,
      "¦Ĥ": 400,
      "åĵ": 401,
      "ic": 402,
      "ä¸Ģä¸ª": 403,
      "çĲ": 404,
      "ä¸ĭ": 405,
      "et": 406,
      "Ġp": 407,
      "æĪĲ": 408,
      "Ġthe": 409,
      "ĊĠĠĠĠĠĠĠĠ": 410,
      "æıĲ": 411,
      "ä»ĸ": 412,
      "de": 413,
      "åİ": 414,
      "åĪ°": 415,
      "ro": 416,
      "æ°": 417,
      "æĽ": 418,
      "æĥ": 419,
      "ur": 420,
      "ct": 421,
      "Ġf": 422,
      "å¦Ĥ": 423,
      "åŃ¦": 424,
      "æĻ": 425,
      "åĳ": 426,
      "è¡Į": 427,
      "å¿": 428,
      "ĊĠĠĠĠĠĠĠ": 429,
      "æĹ¶": 430,
      "æĭ": 431,
      "å¯¹": 432,
      "åĩº": 433,
      "ä¾": 434,
      "äºİ": 435,
      "åŃĲ": 436,
      "æİ": 437,
      "am": 438,
      "ä½ł": 439,
      "åľ°": 440,
      "æĶ": 441,
      "é¢ĺ": 442,
      "è´": 443,
      "Ġs": 444,
      "ä¸Ĭ": 445,
      "ç«": 446,
      "Ġn": 447,
      "is": 448,
      "ä¼ļ": 449,
      "æĸ¹": 450,
      "åĪĨ": 451,
      "å¥½": 452,
      "å°ı": 453,
      "ut": 454,
      "äºĽ": 455,
      "æĽ´": 456,
      "æµ": 457,
      "èĩª": 458,
      "ent": 459,
      "æ¯": 460,
      "æľ¬": 461,
      "èµ": 462,
      "å¤ļ": 463,
      "çŃī": 464,
      "å¤§": 465,
      "æį": 466,
      "å±": 467,
      "ä½ľ": 468,
      "åĬ¨": 469,
      "Ġo": 470,
      "Ġ{": 471,
      "Ġ\"": 472,
      "Ġin": 473,
      "å·¥": 474,
      "ed": 475,
      "çº": 476,
      "å¹¶": 477,
      "çī©": 478,
      "åħ³": 479,
      "æĮ": 480,
      "ĊĠĠĠ": 481,
      "ï¼Ł": 482,
      "è¾": 483,
      "il": 484,
      "åıĳ": 485,
      "ç®": 486,
      "Ġre": 487,
      "Ġm": 488,
      "ç±": 489,
      "if": 490,
      "é£": 491,
      "æĪĳä»¬": 492,
      "éľ": 493,
      "å®ļ": 494,
      "éĿ¢": 495,
      "æ´": 496,
      "un": 497,
      "Ċĉ": 498,
      "ce": 499,
      "Ċĉĉ": 500,
      "im": 501,
      "åħ¶": 502,
      "æĤ": 503,
      "pe": 504,
      "æŀľ": 505,
      "ç§į": 506,
      "æľĢ": 507,
      "åŁ": 508,
      "Ġb": 509,
      "æ¬": 510,
      "è¿ĩ": 511,
      "æ³ķ": 512,
      "çİ°": 513,
      "éĻ": 514,
      "çļĦç": 515,
      "è¿Ľ": 516,
      "éĹ®": 517,
      "åģ": 518,
      "ä½ĵ": 519,
      "çĲĨ": 520,
      "å®ĥ": 521,
      "æį®": 522,
      "lo": 523,
      "æ¸": 524,
      "èī": 525,
      "åĬĽ": 526,
      "æ²": 527,
      "å°Ĩ": 528,
      "om": 529,
      "æĪĸ": 530,
      "æĢ§": 531,
      "å¤©": 532,
      "éľĢ": 533,
      "åºĶ": 534,
      "()": 535,
      "åĬł": 536,
      "åĮĸ": 537,
      "Ġw": 538,
      "æĺİ": 539,
      "ç»Ļ": 540,
      "æĸ°": 541,
      "ç±»": 542,
      "ä½¿": 543,
      "éģ": 544,
      "çĤ": 545,
      "çĦ": 546,
      "åĲĮ": 547,
      "éĩį": 548,
      "ä¿Ŀ": 549,
      "åĽł": 550,
      "é«": 551,
      "å¸¸": 552,
      "è½": 553,
      "é«ĺ": 554,
      "Ġan": 555,
      "çľ": 556,
      "å®¶": 557,
      "æĦŁ": 558,
      "åı¥": 559,
      "æľº": 560,
      "æ±": 561,
      "å½±": 562,
      "ex": 563,
      "ä¹Ł": 564,
      "ä¸»": 565,
      "è¶": 566,
      "éĺ": 567,
      "æķ°": 568,
      "éĶ": 569,
      "//": 570,
      "è¯Ń": 571,
      "çĦ¶": 572,
      "éĢļ": 573,
      "ul": 574,
      "âĢĿ": 575,
      "å¾Ĺ": 576,
      "ç³": 577,
      "æĤ¨": 578,
      "âĢľ": 579,
      "è§£": 580,
      "id": 581,
      "Ġto": 582,
      "åĵģ": 583,
      "ç«ł": 584,
      "Ġd": 585,
      "è°": 586,
      "çĶµ": 587,
      "ue": 588,
      "éľĢè¦ģ": 589,
      "Ġ*": 590,
      "æĸĩç«ł": 591,
      "urn": 592,
      "æĬĢ": 593,
      "as": 594,
      "el": 595,
      "æĻº": 596,
      "ä¹ĭ": 597,
      "åº¦": 598,
      "éĹ®é¢ĺ": 599,
      "èĢĮ": 600,
      "æģ": 601,
      "è¡¨": 602,
      "åī": 603,
      "æĥħ": 604,
      "ate": 605,
      "ç»ı": 606,
      "éĹ´": 607,
      "çŁ": 608,
      "ol": 609,
      "æĸĩæľ¬": 610,
      "ä¹Ī": 611,
      "çĿ": 612,
      "ame": 613,
      "ĊĠĠĠĠĠĠĠĠĠĠĠ": 614,
      "turn": 615,
      "è¯·": 616,
      "å¢": 617,
      "åħ¬": 618,
      "ch": 619,
      "ç¾": 620,
      "æĻºèĥ½": 621,
      "ç¤": 622,
      "err": 623,
      "éĩı": 624,
      "å¾Ī": 625,
      "ag": 626,
      "æŃ¤": 627,
      "èĬ": 628,
      "åĸ": 629,
      "ation": 630,
      "ad": 631,
      "ç©": 632,
      "åĽ½": 633,
      "çĤ¹": 634,
      "å®ŀ": 635,
      "èĢħ": 636,
      "å»": 637,
      "Ġ(": 638,
      "ç¨": 639,
      "æľ¯": 640,
      "pt": 641,
      "èĤ": 642,
      "ä¿¡": 643,
      "èī²": 644,
      "å¹´": 645,
      "Ġof": 646,
      "åĲĪ": 647,
      "str": 648,
      "åĢ": 649,
      "Ġand": 650,
      "ä¾Ľ": 651,
      "è¿Ļä¸ª": 652,
      "æ°Ķ": 653,
      "å¿ĥ": 654,
      "åıĸ": 655,
      "ä¸ļ": 656,
      "ä¹ł": 657,
      "åĲį": 658,
      "ç¡": 659,
      "ype": 660,
      "è¯į": 661,
      "æĦı": 662,
      "ig": 663,
      "ä½Ĩ": 664,
      "\",": 665,
      "è®¡": 666,
      "Ġse": 667,
      "ot": 668,
      "è¯¥": 669,
      "å»º": 670,
      "çĸ": 671,
      "æıĲä¾Ľ": 672,
      "ä¸İ": 673,
      "åĲİ": 674,
      "æīĢ": 675,
      "çĽ¸": 676,
      "St": 677,
      "äºĭ": 678,
      "éĤ": 679,
      "ck": 680,
      "ä»İ": 681,
      "åĮħ": 682,
      "ä»¥ä¸ĭ": 683,
      "çĿĢ": 684,
      "è¿ĺ": 685,
      "ç½": 686,
      "lf": 687,
      "ĠT": 688,
      "æ´»": 689,
      "æ®": 690,
      "ä¸ĢäºĽ": 691,
      "æŁ": 692,
      "éĥ½": 693,
      "--": 694,
      "ç¾İ": 695,
      "ä½¿çĶ¨": 696,
      "é¡": 697,
      "00": 698,
      "um": 699,
      "è¿Ľè¡Į": 700,
      "æł¹": 701,
      "çĲĥ": 702,
      "çī¹": 703,
      "å¼ı": 704,
      "åħ¥": 705,
      "ç´": 706,
      "åħ¨": 707,
      "Ġ0": 708,
      "å±ķ": 709,
      "ap": 710,
      "çķ": 711,
      "éĩĮ": 712,
      "åı¥åŃĲ": 713,
      "å¤ĸ": 714,
      "é£Ł": 715,
      "çİ¯": 716,
      "è¿°": 717,
      "Ġth": 718,
      "èĲ": 719,
      "æ¡": 720,
      "åĨħ": 721,
      "è¢": 722,
      "åĬ©": 723,
      "äººå·¥": 724,
      "ç¡®": 725,
      "å¼Ģ": 726,
      "æģ¯": 727,
      "éļ": 728,
      "é¦": 729,
      "å½ĵ": 730,
      "ç³»": 731,
      "éķ": 732,
      "æĥ³": 733,
      "æŃ£": 734,
      "ç¨ĭ": 735,
      "åıĺ": 736,
      "ort": 737,
      "In": 738,
      "éĿŀ": 739,
      "Ġv": 740,
      "æ¯Ķ": 741,
      "äººå·¥æĻºèĥ½": 742,
      "æ°´": 743,
      "éĥ": 744,
      "æ·": 745,
      "åŀ": 746,
      "æĮģ": 747,
      "åĪ¶": 748,
      "ab": 749,
      "iv": 750,
      "Ġl": 751,
      "åİ»": 752,
      "éĽ": 753,
      "æł¹æį®": 754,
      "åħ·": 755,
      "è·": 756,
      "ç¯": 757,
      "èģ": 758,
      "Ġerr": 759,
      "ist": 760,
      "em": 761,
      "åĨĻ": 762,
      "ser": 763,
      "æ®µ": 764,
      "æĺ¯ä¸Ģ": 765,
      "åŃ¦ä¹ł": 766,
      "è¯´": 767,
      "è®©": 768,
      "est": 769,
      "äº§": 770,
      "åĿ": 771,
      "get": 772,
      "å¸Ĥ": 773,
      "éģĵ": 774,
      "ä»Ģ": 775,
      "ode": 776,
      "ont": 777,
      "å¸®": 778,
      "Ġ:": 779,
      "int": 780,
      "ç»ĵ": 781,
      "ç¼": 782,
      "çľĭ": 783,
      "åı¯èĥ½": 784,
      "åıĬ": 785,
      "ers": 786,
      "ç¬": 787,
      "çĽ®": 788,
      "èµ·": 789,
      "çĥ": 790,
      "Ġh": 791,
      "éĥ¨": 792,
      ");": 793,
      "åķ": 794,
      "åĬ¡": 795,
      "ä½ķ": 796,
      "éķ¿": 797,
      "ç¯ĩ": 798,
      "æĬĢæľ¯": 799,
      "ä»Ģä¹Ī": 800,
      "èº": 801,
      "èĭ": 802,
      "ĊĊ": 803,
      "è¢«": 804,
      "res": 805,
      "è¯Ŀ": 806,
      "ub": 807,
      "éĤ£": 808,
      "ä»ĸä»¬": 809,
      "èį": 810,
      "åīį": 811,
      "åĻ": 812,
      "Ġis": 813,
      "ç®Ĺ": 814,
      "Ġ'": 815,
      "éħ": 816,
      "æ¯ı": 817,
      "æĭ¬": 818,
      "çĭ": 819,
      "od": 820,
      "éĢĤ": 821,
      "èº«": 822,
      "åıĹ": 823,
      "æĹ¥": 824,
      "ĠA": 825,
      "åģ¥": 826,
      "éĿŀå¸¸": 827,
      "éĢī": 828,
      "åĽŀ": 829,
      "ä¿¡æģ¯": 830,
      "å°ĳ": 831,
      "å®¹": 832,
      "(\"": 833,
      "æĹł": 834,
      "å·±": 835,
      "ç§ĳ": 836,
      "åľº": 837,
      "åĻ¨": 838,
      "ä»£": 839,
      "èĩªå·±": 840,
      "Ġfor": 841,
      "åĸľ": 842,
      "up": 843,
      "return": 844,
      "çł": 845,
      "éª": 846,
      "port": 847,
      "Re": 848,
      "åŀĭ": 849,
      "äº¤": 850,
      "èĻ": 851,
      "ra": 852,
      "æ¬¢": 853,
      "åĪ©": 854,
      "å¤Ħ": 855,
      "åĪ«": 856,
      "ith": 857,
      "çŃĶ": 858,
      "åĮ»": 859,
      "ä½į": 860,
      "æ¶": 861,
      "å¹³": 862,
      "è¿ĻäºĽ": 863,
      "é¢Ĩ": 864,
      "ä»»": 865,
      "è¨": 866,
      "å¥½çļĦ": 867,
      "ä»¶": 868,
      "éĢļè¿ĩ": 869,
      "æ¡Ī": 870,
      "é¥": 871,
      "æ»": 872,
      "ä¾ĭ": 873,
      "ect": 874,
      "è´¨": 875,
      "ew": 876,
      "éĩįè¦ģ": 877,
      "Ġ:=": 878,
      "è®®": 879,
      "çĪ": 880,
      "çĶµå½±": 881,
      "å§": 882,
      "é£İ": 883,
      "ext": 884,
      "å¢ĥ": 885,
      "åĵį": 886,
      "å¦Ĥæŀľ": 887,
      "age": 888,
      "æīĭ": 889,
      "ä¸¤": 890,
      "Ġde": 891,
      "åĮħæĭ¬": 892,
      "éŁ": 893,
      "çĹ": 894,
      "è®º": 895,
      "åĪĽ": 896,
      "æłĩ": 897,
      "ä¸ŃçļĦ": 898,
      "è®¾": 899,
      "Ġ1": 900,
      "åŃĹ": 901,
      "Ġself": 902,
      "us": 903,
      "åĨ³": 904,
      "ĊĠĠĠĠĠĠĠĠĠĠĠĠĠĠĠĠ": 905,
      "æ±Ĥ": 906,
      "åı¸": 907,
      "ç»Ł": 908,
      "å°±": 909,
      "åįķ": 910,
      "çĶŁæĪĲ": 911,
      "åºĶçĶ¨": 912,
      "åŁŁ": 913,
      "æ²¡": 914,
      "qu": 915,
      "å¸®åĬ©": 916,
      "çĻ": 917,
      "è§Ĥ": 918,
      "è¨Ģ": 919,
      "èĪ": 920,
      "å½±åĵį": 921,
      "åıĳå±ķ": 922,
      "æĶ¹": 923,
      "æĹ¶éĹ´": 924,
      "ç®Ģ": 925,
      "æľŁ": 926,
      "æĶ¾": 927,
      "ess": 928,
      "çŁ¥": 929,
      "ĊĠĠĠĠĠĠĠĠĠĠĠĠĠĠĠ": 930,
      "æº": 931,
      "æİ¨": 932,
      "iz": 933,
      "çģ": 934,
      "åıª": 935,
      "pl": 936,
      "æ¸¸": 937,
      "å°ıæĺİ": 938,
      "å£": 939,
      "åº·": 940,
      "æķĪ": 941,
      "Ġg": 942,
      "ç¥": 943,
      "ä¸ī": 944,
      "æľª": 945,
      "æĢ»": 946,
      "Ġif": 947,
      "æ¨": 948,
      "è¯Ĩ": 949,
      "å¼º": 950,
      "ä¹Ĳ": 951,
      "},": 952,
      "èĥ": 953,
      "ç¤¾": 954,
      "Ġor": 955,
      "é»": 956,
      "åħ¬åı¸": 957,
      "èĬĤ": 958,
      "ult": 959,
      "åģ¥åº·": 960,
      "ĠC": 961,
      "æıı": 962,
      "å®ī": 963,
      "åĸľæ¬¢": 964,
      "æŃ¥": 965,
      "æ³¨": 966,
      "æµ·": 967,
      "ile": 968,
      "æķ°æį®": 969,
      "Ġst": 970,
      "th": 971,
      "å¤Ł": 972,
      "ir": 973,
      "åĩı": 974,
      "çĶ±": 975,
      "ter": 976,
      "æŀģ": 977,
      "Type": 978,
      "æł·": 979,
      "æľį": 980,
      "and": 981,
      "ç»Ļå®ļ": 982,
      "æĸŃ": 983,
      "æĪ·": 984,
      "äººç±»": 985,
      "ä¸įåĲĮ": 986,
      "è±": 987,
      "æĳ": 988,
      "è¾¾": 989,
      "æ¼": 990,
      "èİ": 991,
      "çĶŁæ´»": 992,
      "å·¥ä½ľ": 993,
      "Ġnil": 994,
      "èĦ": 995,
      "é¢ĨåŁŁ": 996,
      "æµģ": 997,
      "ata": 998,
      "çİ¯å¢ĥ": 999,
      "å¯¼": 1000,
      "ver": 1001,
      "éŁ³": 1002,
      "çĸĹ": 1003,
      "é©": 1004,
      "åĽłæŃ¤": 1005,
      "ä¸ĸ": 1006,
      "ke": 1007,
      "åİŁ": 1008,
      "å¤ª": 1009,
      "Ġas": 1010,
      "end": 1011,
      "æ·±": 1012,
      "æĺŁ": 1013,
      "å½¢": 1014,
      "åģļ": 1015,
      "unc": 1016,
      "åĳĺ": 1017,
      "our": 1018,
      "åĽłä¸º": 1019,
      "è¿Ĳ": 1020,
      "æĻ¯": 1021,
      "æ²¡æľī": 1022,
      "ï¼ī": 1023,
      "string": 1024,
      "put": 1025,
      "ĠS": 1026,
      "å·²": 1027,
      "å¸¦": 1028,
      "æ¬¡": 1029,
      "æ¨¡": 1030,
      "åıĭ": 1031,
      "ri": 1032,
      "éĴ": 1033,
      "åŁº": 1034,
      "è½¦": 1035,
      "os": 1036,
      "å®ĥä»¬": 1037,
      "ç¤º": 1038,
      "æııè¿°": 1039,
      "ay": 1040,
      "èı": 1041,
      "ç²": 1042,
      "Ġ[": 1043,
      "ase": 1044,
      "Ġpro": 1045,
      "è®¤": 1046,
      "import": 1047,
      "æĸĻ": 1048,
      "æıĲåıĸ": 1049,
      "æºĲ": 1050,
      "æī¾": 1051,
      "è¯ķ": 1052,
      "Ġreturn": 1053,
      "ction": 1054,
      "çĮ": 1055,
      "20": 1056,
      "éĶ®": 1057,
      "Ġ}": 1058,
      "ç»Ħ": 1059,
      "å»ºè®®": 1060,
      "åİĨ": 1061,
      "Name": 1062,
      "ĊĊĠĠĠ": 1063,
      "))": 1064,
      "ä¼ł": 1065,
      "æł¼": 1066,
      "å¥¹": 1067,
      "åĲĦ": 1068,
      "ä¹ī": 1069,
      "Ġe": 1070,
      "éĢł": 1071,
      "æıĲé«ĺ": 1072,
      "Ġbe": 1073,
      "å¦Ĥä½ķ": 1074,
      "æĮĩ": 1075,
      "ï¼Ī": 1076,
      "æĭ©": 1077,
      "èĩªçĦ¶": 1078,
      "ãĢĭ": 1079,
      "ãĢĬ": 1080,
      "Ex": 1081,
      "éĢīæĭ©": 1082,
      "åĲĳ": 1083,
      "çķĮ": 1084,
      "åŁİ": 1085,
      "åĮº": 1086,
      "çļĦæķ": 1087,
      "ption": 1088,
      "æĬ¤": 1089,
      "æĽ´åĬł": 1090,
      "per": 1091,
      "ht": 1092,
      "è°ĥ": 1093,
      "åħ³éĶ®": 1094,
      "ä¸»è¦ģ": 1095,
      "æĸ¹å¼ı": 1096,
      "Ġr": 1097,
      "è£": 1098,
      "åħī": 1099,
      "ment": 1100,
      "ç©¶": 1101,
      "Ċĉĉĉ": 1102,
      "æĹħ": 1103,
      "åºĶè¯¥": 1104,
      "è§Ĩ": 1105,
      "ĊĠĠĠĠ": 1106,
      "èĢĥ": 1107,
      "ç©º": 1108,
      "ç½ĳ": 1109,
      "åĨħå®¹": 1110,
      "æĺ¯ä¸Ģä¸ª": 1111,
      "èĥ½å¤Ł": 1112,
      "åĳ³": 1113,
      "ç®¡": 1114,
      "å¢ŀ": 1115,
      "åĲĮæĹ¶": 1116,
      "è¿ĳ": 1117,
      "Ġ-": 1118,
      "ä»·": 1119,
      "Str": 1120,
      "åı£": 1121,
      "éªĮ": 1122,
      "ä¾ĭå¦Ĥ": 1123,
      "é¡¹": 1124,
      "åĳĬ": 1125,
      "all": 1126,
      "åħ³äºİ": 1127,
      "è¯Ńè¨Ģ": 1128,
      "èĲ½": 1129,
      "åĩĨ": 1130,
      "çĪ±": 1131,
      "æĸ¹æ³ķ": 1132,
      "äººä»¬": 1133,
      "Ġex": 1134,
      "çĬ": 1135,
      "able": 1136,
      "è®¡ç®Ĺ": 1137,
      "é¢Ħ": 1138,
      "que": 1139,
      "ç¯ĩæĸĩç«ł": 1140,
      "å¹¿": 1141,
      "Ġ+": 1142,
      "ï¼Ľ": 1143,
      "ç¦": 1144,
      "åħ¶ä»ĸ": 1145,
      "å®¢": 1146,
      "èĬ±": 1147,
      "å®Į": 1148,
      "Ķç©¶": 1149,
      "é¤": 1150,
      "æĸ¹éĿ¢": 1151,
      "ow": 1152,
      "cl": 1153,
      "åķĨ": 1154,
      "rr": 1155,
      "ang": 1156,
      "å¿«": 1157,
      "ack": 1158,
      "å¼ķ": 1159,
      "åĲĹ": 1160,
      "Ċĉĉĉĉ": 1161,
      "fa": 1162,
      "çº¢": 1163,
      "é¤Ĳ": 1164,
      "ä»¥åıĬ": 1165,
      "çĹħ": 1166,
      "æľºåĻ¨": 1167,
      "ä¸Ķ": 1168,
      "Ġ!": 1169,
      "ä¹¦": 1170,
      "ä¼ĺ": 1171,
      "for": 1172,
      "æİ¥": 1173,
      "éĶĻ": 1174,
      "ç´ł": 1175,
      "ath": 1176,
      "æľªæĿ¥": 1177,
      "åĩł": 1178,
      "é¦ĸ": 1179,
      "éĵ": 1180,
      "è¯Ħ": 1181,
      "ore": 1182,
      "åĬŁ": 1183,
      "av": 1184,
      "æĢĿ": 1185,
      "è®¸": 1186,
      "èµĦ": 1187,
      "alue": 1188,
      "ain": 1189,
      "----": 1190,
      "ity": 1191,
      "Err": 1192,
      "omm": 1193,
      "):": 1194,
      "éĩĳ": 1195,
      "ice": 1196,
      "æ£": 1197,
      "åĪ°äºĨ": 1198,
      "èĩ´": 1199,
      "set": 1200,
      "å¤ĩ": 1201,
      "che": 1202,
      "onf": 1203,
      "æķĻ": 1204,
      "åħĪ": 1205,
      "op": 1206,
      "æ¸ħ": 1207,
      "ä¸»é¢ĺ": 1208,
      "ime": 1209,
      "æĪĺ": 1210,
      "åĪĹ": 1211,
      "one": 1212,
      "æļ": 1213,
      "Ġ#": 1214,
      "åŃĺ": 1215,
      "è¶Ĭ": 1216,
      "ï¼ģ": 1217,
      "',": 1218,
      "oun": 1219,
      "è½»": 1220,
      "ĠI": 1221,
      "æµĭ": 1222,
      "å§ĭ": 1223,
      "rom": 1224,
      "é¸": 1225,
      "ä¸ªäºº": 1226,
      "\")": 1227,
      "func": 1228,
      "ç»Ń": 1229,
      "è§ī": 1230,
      "æĢģ": 1231,
      "ĠP": 1232,
      "eld": 1233,
      "String": 1234,
      "Res": 1235,
      "Ġu": 1236,
      "ield": 1237,
      "è¯»": 1238,
      "èĮ": 1239,
      "ç«ĭ": 1240,
      "Ġwith": 1241,
      "æŀĲ": 1242,
      "éĺ³": 1243,
      "Ġres": 1244,
      "ä¸ĸçķĮ": 1245,
      "ä»Ĭ": 1246,
      "ç§¯": 1247,
      "çŁŃ": 1248,
      "to": 1249,
      "ĠL": 1250,
      "æ¸©": 1251,
      "aram": 1252,
      "åĪĨç±»": 1253,
      "åĵª": 1254,
      "åħĭ": 1255,
      "æľĭ": 1256,
      "ç¬¬": 1257,
      "Ġ!=": 1258,
      "åħ±": 1259,
      "çİĩ": 1260,
      "der": 1261,
      "çº¦": 1262,
      "åĢĻ": 1263,
      "åĲ«": 1264,
      "èıľ": 1265,
      "å¤į": 1266,
      "æĶ¯": 1267,
      "æĸĩåĮĸ": 1268,
      "ç¼ĸ": 1269,
      "å¤ĦçĲĨ": 1270,
      "åĪĨæŀĲ": 1271,
      "name": 1272,
      "sert": 1273,
      "lic": 1274,
      "quest": 1275,
      "æľĭåıĭ": 1276,
      "ç»Ĩ": 1277,
      "ĠN": 1278,
      "ject": 1279,
      "æķ´": 1280,
      "è±¡": 1281,
      "åĽŀçŃĶ": 1282,
      "ä½Ĩæĺ¯": 1283,
      "çļĦæĥ": 1284,
      "\":": 1285,
      "ĠF": 1286,
      "te": 1287,
      "æľĪ": 1288,
      "è¶³": 1289,
      "åı²": 1290,
      "ĠM": 1291,
      "åĩıå°ĳ": 1292,
      "pon": 1293,
      "åĲ¦": 1294,
      "åĨµ": 1295,
      "art": 1296,
      "çłĶç©¶": 1297,
      "åħĥ": 1298,
      "æĸ¯": 1299,
      "ize": 1300,
      "pro": 1301,
      "è§Ĵ": 1302,
      "åĪĻ": 1303,
      "æ»¡": 1304,
      "å±±": 1305,
      "**": 1306,
      "ĊĊĠĠĠĠĠĠĠ": 1307,
      "åĥ": 1308,
      "self": 1309,
      "åŁİå¸Ĥ": 1310,
      "ä¹ĭä¸Ģ": 1311,
      "æľĽ": 1312,
      "ä¸Ģä¸ĭ": 1313,
      "èĳ": 1314,
      "çº¿": 1315,
      "ç³»ç»Ł": 1316,
      "ç¥ŀ": 1317,
      "è®¸å¤ļ": 1318,
      "åıį": 1319,
      "ä¿ĿæĬ¤": 1320,
      "åıĤ": 1321,
      "Ġ2": 1322,
      "æİ¢": 1323,
      "ition": 1324,
      "åĪĴ": 1325,
      "è¿Ļç¯ĩæĸĩç«ł": 1326,
      "èģĶ": 1327,
      "ä¸ŃåĽ½": 1328,
      "å·²ç»ı": 1329,
      "äº§åĵģ": 1330,
      "è§Ħ": 1331,
      "Ġnot": 1332,
      "åĢ¼": 1333,
      "Ġon": 1334,
      "Â·": 1335,
      "ass": 1336,
      "ä¿ĿæĮģ": 1337,
      "é¥®": 1338,
      "ç¿": 1339,
      "Ġè¯·": 1340,
      "ĠD": 1341,
      "äºĨä¸Ģ": 1342,
      "è¾ĵ": 1343,
      "ä¸¤ä¸ª": 1344,
      "éĩĩ": 1345,
      "10": 1346,
      "ç³ĸ": 1347,
      "oo": 1348,
      "çľŁ": 1349,
      "),": 1350,
      "è§£åĨ³": 1351,
      "çļĦäºº": 1352,
      "ure": 1353,
      "æŃ¤å¤ĸ": 1354,
      "æĽ´å¤ļ": 1355,
      "åĶ": 1356,
      "æĺĵ": 1357,
      "å°½": 1358,
      "ĺè¦ģ": 1359,
      "ance": 1360,
      "æľįåĬ¡": 1361,
      "Ġthat": 1362,
      "ire": 1363,
      "out": 1364,
      "è¥": 1365,
      "çĽ´": 1366,
      "æĸ½": 1367,
      "éĢŁ": 1368,
      "èĢģ": 1369,
      "è°¢": 1370,
      "åĮ»çĸĹ": 1371,
      "éĻ©": 1372,
      "å¥³": 1373,
      "è¶£": 1374,
      "ly": 1375,
      "çħ": 1376,
      "åĽ¾": 1377,
      "log": 1378,
      "åĥı": 1379,
      "ies": 1380,
      "Ġthis": 1381,
      "èİ·": 1382,
      "Ġy": 1383,
      "èĩªå·±çļĦ": 1384,
      "ä»½": 1385,
      "è·¯": 1386,
      "è¥¿": 1387,
      "æİĴ": 1388,
      "æŁ¥": 1389,
      "æŀĦ": 1390,
      "æĬ¥": 1391,
      "å¤´": 1392,
      "ial": 1393,
      "Ġ`": 1394,
      "çĭĹ": 1395,
      "ip": 1396,
      "èĻĳ": 1397,
      "æĺ¯ä¸Ģç§į": 1398,
      "æ´»åĬ¨": 1399,
      "çĻ½": 1400,
      "åĬ¨çī©": 1401,
      "åħ¨çĲĥ": 1402,
      "ine": 1403,
      "åĲĥ": 1404,
      "åĨį": 1405,
      "æĪĲä¸º": 1406,
      "å®īåħ¨": 1407,
      "éļ¾": 1408,
      "åºı": 1409,
      "èĩ³": 1410,
      "ublic": 1411,
      "è¾ĥ": 1412,
      "ħäºĭ": 1413,
      "è§ģ": 1414,
      "Ġit": 1415,
      "Ġal": 1416,
      "Ġwh": 1417,
      "çīĩ": 1418,
      "éħį": 1419,
      "çĥŃ": 1420,
      "åĳ¨": 1421,
      "æĿ¡": 1422,
      "å²": 1423,
      "æĶ¶": 1424,
      "ient": 1425,
      "éļı": 1426,
      "ontext": 1427,
      "Pro": 1428,
      "ä¹°": 1429,
      "ä»ĭ": 1430,
      "åĲ¬": 1431,
      "ç¤¾ä¼ļ": 1432,
      "æĪĸèĢħ": 1433,
      "çİ¯ä¿Ŀ": 1434,
      "è®°": 1435,
      "çļĦä¸Ģ": 1436,
      "ä¾¿": 1437,
      "vice": 1438,
      "ç´¢": 1439,
      "cc": 1440,
      "è¿ĲåĬ¨": 1441,
      "ä¹ĭéĹ´": 1442,
      "Error": 1443,
      "çĽ¸åħ³": 1444,
      "æĲ": 1445,
      "åıĺåĮĸ": 1446,
      "åıĳçİ°": 1447,
      "ive": 1448,
      "æ¼Ķ": 1449,
      "èĤ²": 1450,
      "çļĦæĥħ": 1451,
      "äº«": 1452,
      "èº«ä½ĵ": 1453,
      "çİ°åľ¨": 1454,
      "type": 1455,
      "çŃĸ": 1456,
      "ff": 1457,
      "ç»ĥ": 1458,
      "En": 1459,
      "sion": 1460,
      "==": 1461,
      "æīĵ": 1462,
      "æ¶Ī": 1463,
      "ãĢĤâĢĿ": 1464,
      "åĳ½": 1465,
      "æĪĳä»¬çļĦ": 1466,
      "ust": 1467,
      "å¡": 1468,
      "ç»ĻæĪĳ": 1469,
      "gs": 1470,
      "rue": 1471,
      "__": 1472,
      "æĶ¿": 1473,
      "è¯Ĺ": 1474,
      "ç²¾": 1475,
      "è®¤ä¸º": 1476,
      "åħ·æľī": 1477,
      "ä½łçļĦ": 1478,
      "ource": 1479,
      "çĬ¶": 1480,
      "dd": 1481,
      "å¼ł": 1482,
      "éĺŁ": 1483,
      "ç¢": 1484,
      "Ġerror": 1485,
      "åĲ¸": 1486,
      "ä¸½": 1487,
      "onfig": 1488,
      "å¸Ī": 1489,
      "æ¤": 1490,
      "èĥ½åĬĽ": 1491,
      "åİĨåı²": 1492,
      "Ġcon": 1493,
      "åħħ": 1494,
      "åħ¶ä¸Ń": 1495,
      "æ²»": 1496,
      "äºĮ": 1497,
      "åħ´": 1498,
      "å¤±": 1499,
      "è¿Ļç§į": 1500,
      "çĭ¬": 1501,
      "##": 1502,
      "ç§ĳæĬĢ": 1503,
      "çı": 1504,
      "åı¤": 1505,
      "Ġj": 1506,
      "æħ": 1507,
      "Ġ==": 1508,
      "éĽĨ": 1509,
      "ä½İ": 1510,
      "ç»´": 1511,
      "åĽŃ": 1512,
      "Ġcom": 1513,
      "å¤©æ°Ķ": 1514,
      "Ġnew": 1515,
      "è´Ń": 1516,
      "å¸ĥ": 1517,
      "tp": 1518,
      "éĤ£ä¹Ī": 1519,
      "éĹ¨": 1520,
      "å¸¦æĿ¥": 1521,
      "ç§°": 1522,
      "çŃĶæ¡Ī": 1523,
      "oc": 1524,
      "æ¬¾": 1525,
      "äºĴ": 1526,
      "ĠB": 1527,
      "å¯¼èĩ´": 1528,
      "ence": 1529,
      "ĠThe": 1530,
      "æĬĬ": 1531,
      "son": 1532,
      "ponse": 1533,
      "èĲ¥": 1534,
      "éĩĬ": 1535,
      "è®¾è®¡": 1536,
      "åħį": 1537,
      "form": 1538,
      "¹æŀľ": 1539,
      "åį³": 1540,
      "å¾Īå¤ļ": 1541,
      "ç§¯æŀģ": 1542,
      "Ġcan": 1543,
      "ç§ĳåŃ¦": 1544,
      "ä¸ĵ": 1545,
      "èĭ¹æŀľ": 1546,
      "val": 1547,
      "pa": 1548,
      "äºĨè§£": 1549,
      "uct": 1550,
      "éĹ»": 1551,
      "éŁ³ä¹Ĳ": 1552,
      "ä»»åĬ¡": 1553,
      "æĿĲ": 1554,
      "å¿ħ": 1555,
      "ight": 1556,
      "æŃĮ": 1557,
      "ĠO": 1558,
      "ç»Ļå®ļçļĦ": 1559,
      "\"\"": 1560,
      "èĭ±": 1561,
      "åĭ": 1562,
      "è¯ī": 1563,
      "å¦": 1564,
      "æ¢": 1565,
      "ib": 1566,
      "å¼Ģå§ĭ": 1567,
      "Ġstring": 1568,
      "è¯¯": 1569,
      "æ¨¡åŀĭ": 1570,
      "æĳĺè¦ģ": 1571,
      "Ġ@": 1572,
      "çĮ«": 1573,
      "Ġ&": 1574,
      "å¨": 1575,
      "çļĦæĦ": 1576,
      "å¯¹äºİ": 1577,
      "èįĲ": 1578,
      "å°Ŀ": 1579,
      "çĲĨè§£": 1580,
      "çĶ·": 1581,
      "æīį": 1582,
      "è½¬": 1583,
      "æĿ¾": 1584,
      "ated": 1585,
      "çļĦå½±åĵį": 1586,
      "éĢļå¸¸": 1587,
      "è¡¨è¾¾": 1588,
      "å¯Į": 1589,
      "ind": 1590,
      "sh": 1591,
      "åħ·ä½ĵ": 1592,
      "ç»Ļåĩº": 1593,
      "ç»į": 1594,
      "ant": 1595,
      "éĻ¤": 1596,
      "åĲĦç§į": 1597,
      "çĶ¨æĪ·": 1598,
      "èĽ": 1599,
      "è®¡ç®Ĺæľº": 1600,
      "å®ŀçİ°": 1601,
      "com": 1602,
      "ä»ĭç»į": 1603,
      "è®¨": 1604,
      "ĊĠĠĠĠĠĠĠĠĠĠĠĠĠĠĠĠĠĠĠ": 1605,
      "æĺ¯åĲ¦": 1606,
      "atch": 1607,
      "ount": 1608,
      "åŃ£": 1609,
      "ĠĠĠĠĠĠĠĠĠĠĠĠĠĠĠĠ": 1610,
      "pr": 1611,
      "ener": 1612,
      "åı·": 1613,
      "æ°ĳ": 1614,
      "æľºåĻ¨åŃ¦ä¹ł": 1615,
      "Ġsh": 1616,
      "è¯ģ": 1617,
      "çļĦæĬ": 1618,
      "odel": 1619,
      "åı¥è¯Ŀ": 1620,
      "Ġ[]": 1621,
      "key": 1622,
      "æĸ°çļĦ": 1623,
      "æĥħæĦŁ": 1624,
      "ä¸ŃæıĲåıĸ": 1625,
      "ple": 1626,
      "è´¹": 1627,
      "ull": 1628,
      "åĬ¿": 1629,
      "ug": 1630,
      "è®¡åĪĴ": 1631,
      "con": 1632,
      "Ġ%": 1633,
      "Ġdef": 1634,
      "æİ¨èįĲ": 1635,
      "Ġi": 1636,
      "é²": 1637,
      "Ġint": 1638,
      "å°Ķ": 1639,
      "åİĭ": 1640,
      "èµĽ": 1641,
      "po": 1642,
      "è£ħ": 1643,
      "Ġæł¹æį®": 1644,
      "æĽ´å¥½": 1645,
      "éĶĢ": 1646,
      "ud": 1647,
      "æĤ¨çļĦ": 1648,
      "Get": 1649,
      "..": 1650,
      "é¦Ļ": 1651,
      "èĤī": 1652,
      "åįĩ": 1653,
      "é©¬": 1654,
      "æīĢæľī": 1655,
      "åĽ´": 1656,
      "ä¿®": 1657,
      "ve": 1658,
      "åħ»": 1659,
      "bject": 1660,
      "Ġun": 1661,
      "æľĢè¿ĳ": 1662,
      "æİ§": 1663,
      "De": 1664,
      "èīº": 1665,
      "ä»Ĭå¤©": 1666,
      "ä¸įæĸŃ": 1667,
      "é»ĳ": 1668,
      "ç½®": 1669,
      "å¸Į": 1670,
      "AI": 1671,
      "åĸĦ": 1672,
      "åĮĹ": 1673,
      "æĿİ": 1674,
      "åĳĬè¯ī": 1675,
      "å¸Ĥåľº": 1676,
      "è®²": 1677,
      "åįİ": 1678,
      "å¾ĭ": 1679,
      "èħ": 1680,
      "æĪı": 1681,
      "roup": 1682,
      "ç»Ī": 1683,
      "æŁĵ": 1684,
      "æ³¨æĦı": 1685,
      "çª": 1686,
      "Ser": 1687,
      "åįģ": 1688,
      "ç¦»": 1689,
      "Ġch": 1690,
      "Ġare": 1691,
      "å¯»": 1692,
      "low": 1693,
      "æŃ£åľ¨": 1694,
      "èĢĥèĻĳ": 1695,
      "Ġstr": 1696,
      "æĪĳçļĦ": 1697,
      "æĭī": 1698,
      "åħ³éĶ®è¯į": 1699,
      "ans": 1700,
      "æīĢä»¥": 1701,
      "è¯ĨåĪ«": 1702,
      "ç®¡çĲĨ": 1703,
      "å¾·": 1704,
      "ide": 1705,
      "éĢĤåĲĪ": 1706,
      "åľ°çĲĥ": 1707,
      "ork": 1708,
      "çļĦæĺ¯": 1709,
      "æĹłæ³ķ": 1710,
      "XX": 1711,
      "Ġ3": 1712,
      "Ġma": 1713,
      "åħ³ç³»": 1714,
      "éĺ²": 1715,
      "è¿ľ": 1716,
      "åŃ©": 1717,
      "ma": 1718,
      "è¿ĩç¨ĭ": 1719,
      "ä¸Ģæ®µ": 1720,
      "éĻħ": 1721,
      "ON": 1722,
      "æ¯ıä¸ª": 1723,
      "Ġen": 1724,
      "è¦ģæ±Ĥ": 1725,
      "èĳĹ": 1726,
      "æ¯Ķå¦Ĥ": 1727,
      "rit": 1728,
      "Ġhe": 1729,
      "Ġ<": 1730,
      "å£°": 1731,
      "æĪĳä»¬åı¯ä»¥": 1732,
      "ä¸Ģç§į": 1733,
      "ç¡®ä¿Ŀ": 1734,
      "Id": 1735,
      "ä¸Ģèµ·": 1736,
      "æĴ": 1737,
      "çļĦéĹ®é¢ĺ": 1738,
      "æĦŁåĪ°": 1739,
      "è¾¹": 1740,
      "åįķè¯į": 1741,
      "ä»ĸçļĦ": 1742,
      "æĻļ": 1743,
      "ill": 1744,
      "å¤ªéĺ³": 1745,
      "ange": 1746,
      "çŁ¥éģĵ": 1747,
      "å¤ı": 1748,
      "ense": 1749,
      "pect": 1750,
      "è´Ł": 1751,
      "tr": 1752,
      "ä½ľä¸º": 1753,
      "æŁĲ": 1754,
      "ä»ħ": 1755,
      "Ġap": 1756,
      "è¶ħ": 1757,
      "å£«": 1758,
      "æĺ¾": 1759,
      "Ġby": 1760,
      "çĦ¶åĲİ": 1761,
      "ces": 1762,
      "åı¦": 1763,
      "æ³Ľ": 1764,
      "ren": 1765,
      "è§£éĩĬ": 1766,
      "act": 1767,
      ").": 1768,
      "ommon": 1769,
      "æŀĹ": 1770,
      "ID": 1771,
      "èģĮ": 1772,
      "åŃĺåľ¨": 1773,
      "è´¨éĩı": 1774,
      "æĪĲåĬŁ": 1775,
      "ĳæĪĺ": 1776,
      "List": 1777,
      "å·§": 1778,
      "ign": 1779,
      "åĽĽ": 1780,
      "ä»»ä½ķ": 1781,
      "ou": 1782,
      "å¯Ĩ": 1783,
      "å¹¶ä¸Ķ": 1784,
      "å¢ŀåĬł": 1785,
      "åįĹ": 1786,
      "åĦ": 1787,
      "çļĦæ°": 1788,
      "å¤§çļĦ": 1789,
      "Ġ_": 1790,
      "æĸ°éĹ»": 1791,
      "èŀ": 1792,
      "ï¼ļâĢľ": 1793,
      "éĻį": 1794,
      "cri": 1795,
      "();": 1796,
      "'s": 1797,
      "Ġpublic": 1798,
      "æĪ¿": 1799,
      "ator": 1800,
      "éĶĻè¯¯": 1801,
      "cal": 1802,
      "ost": 1803,
      "æĹ©": 1804,
      "åŃ¦çĶŁ": 1805,
      "åĪ©çĶ¨": 1806,
      "ĊĠ": 1807,
      "åı¯èĥ½ä¼ļ": 1808,
      "æĹħæ¸¸": 1809,
      "test": 1810,
      "ĠH": 1811,
      "ä¼¼": 1812,
      "èµ°": 1813,
      "Ġget": 1814,
      "ç¾İåĽ½": 1815,
      "åĳ¢": 1816,
      "åİħ": 1817,
      "ĠR": 1818,
      "Ġpr": 1819,
      "è¾ĳ": 1820,
      "æ¦Ĥ": 1821,
      "åĽ¢": 1822,
      "å®ĮæĪĲ": 1823,
      "ä¸ľ": 1824,
      "æ¿": 1825,
      "çļĦæĢ": 1826,
      "pec": 1827,
      "ere": 1828,
      "ç±³": 1829,
      "çĨ": 1830,
      "ĠW": 1831,
      "alse": 1832,
      "è¡Įä¸º": 1833,
      "èĽĭ": 1834,
      "ªæĸ½": 1835,
      "To": 1836,
      ":\"": 1837,
      "åı°": 1838,
      "äºļ": 1839,
      "çħ§": 1840,
      "og": 1841,
      "ule": 1842,
      "ä¸įåĲĮçļĦ": 1843,
      "å¹¿æ³Ľ": 1844,
      "':": 1845,
      "çİ©": 1846,
      "æµİ": 1847,
      "oul": 1848,
      "äºĶ": 1849,
      "æĢ»ç»ĵ": 1850,
      "Ġcl": 1851,
      "è®Ń": 1852,
      "çĽ®æłĩ": 1853,
      "å½ĵçĦ¶": 1854,
      "inal": 1855,
      "æ®µèĲ½": 1856,
      "Ġel": 1857,
      "çĶ¨äºİ": 1858,
      "Ġuse": 1859,
      "çĶ»": 1860,
      "å¯¹è¯Ŀ": 1861,
      "æĭ¥": 1862,
      "å°Ŀè¯ķ": 1863,
      "éĻĲ": 1864,
      "ersion": 1865,
      "']": 1866,
      "å°ıè¯´": 1867,
      "å®³": 1868,
      "Ġcont": 1869,
      "Ġlo": 1870,
      "èĩªåĬ¨": 1871,
      "çļĦä¿¡æģ¯": 1872,
      "æĪĳæĥ³": 1873,
      "å¿µ": 1874,
      "19": 1875,
      "ould": 1876,
      "éģ¿": 1877,
      "äº§çĶŁ": 1878,
      "çļĦæķ°": 1879,
      "æľĢåĲİ": 1880,
      "('": 1881,
      "ä¸įæĺ¯": 1882,
      "çģ«": 1883,
      "åĮ»çĶŁ": 1884,
      "eth": 1885,
      "èİ·å¾Ĺ": 1886,
      "è¿Ļæ®µ": 1887,
      "æĺ¯ä»Ģä¹Ī": 1888,
      "çŃīçŃī": 1889,
      "æĥħåĨµ": 1890,
      "ä¸Ģç¯ĩ": 1891,
      "ç»ľ": 1892,
      "qual": 1893,
      "æĽ´å¥½åľ°": 1894,
      "ory": 1895,
      "ä¼ģ": 1896,
      "å¸ĮæľĽ": 1897,
      "ep": 1898,
      "ä¸ĭéĿ¢": 1899,
      "æį¢": 1900,
      "èŀį": 1901,
      "dex": 1902,
      "çļĦåľ°": 1903,
      "Ġfrom": 1904,
      "çİĭ": 1905,
      "ĠTh": 1906,
      "ç»ıæµİ": 1907,
      "é£Łçī©": 1908,
      "olum": 1909,
      "é¥®é£Ł": 1910,
      "åı¯ä»¥å¸®åĬ©": 1911,
      "åĦ¿": 1912,
      "fer": 1913,
      "æĵ": 1914,
      "ä¼Ĺ": 1915,
      "ĠIn": 1916,
      "æľīæķĪ": 1917,
      "æļĸ": 1918,
      "ord": 1919,
      "çļĦåıĳå±ķ": 1920,
      "ast": 1921,
      "utput": 1922,
      "fault": 1923,
      "æķħäºĭ": 1924,
      "ç®Ĺæ³ķ": 1925,
      "å¾ĹåĪ°": 1926,
      "åĴĸ": 1927,
      "æłĩé¢ĺ": 1928,
      "ey": 1929,
      "ec": 1930,
      "å·´": 1931,
      "æ°ĶåĢĻ": 1932,
      "æ´ģ": 1933,
      "Ġ4": 1934,
      "èįī": 1935,
      "fo": 1936,
      "add": 1937,
      "äººçļĦ": 1938,
      "åł": 1939,
      "atus": 1940,
      "Un": 1941,
      "ations": 1942,
      "Ġim": 1943,
      "å¹²": 1944,
      "12": 1945,
      "å®¤": 1946,
      "è¿Ļæł·": 1947,
      "è¾ĵåħ¥": 1948,
      "Cl": 1949,
      "äº¬": 1950,
      "æķĻèĤ²": 1951,
      "æī¾åĪ°": 1952,
      "è¡¨ç¤º": 1953,
      "ç»ĵæŀľ": 1954,
      "by": 1955,
      "æĶ¯æĮģ": 1956,
      "ãĢĤ\\": 1957,
      "å¾ģ": 1958,
      "è¿ĺæľī": 1959,
      "ader": 1960,
      "æĮģç»Ń": 1961,
      "åķ¡": 1962,
      "ger": 1963,
      "çļĦåºĶçĶ¨": 1964,
      "éĽ¨": 1965,
      "æ¿Ģ": 1966,
      "uth": 1967,
      "éħĴ": 1968,
      "çļĦæł": 1969,
      "éĥ¨åĪĨ": 1970,
      "åĴĸåķ¡": 1971,
      "é¦ĸåħĪ": 1972,
      "æ½": 1973,
      "æĢİ": 1974,
      "éľĢæ±Ĥ": 1975,
      "64": 1976,
      "é£ŀ": 1977,
      "äº¤éĢļ": 1978,
      "ä»ĸä»¬çļĦ": 1979,
      "ç½ĳç»ľ": 1980,
      "é»Ħ": 1981,
      "ä½łåı¯ä»¥": 1982,
      "å±ŀ": 1983,
      "ç¡®å®ļ": 1984,
      "ç³ĸæŀľ": 1985,
      "Set": 1986,
      "åĮħåĲ«": 1987,
      "Con": 1988,
      "ä»¤": 1989,
      "pres": 1990,
      "ç©¿": 1991,
      "ard": 1992,
      "Ġset": 1993,
      "éĥ½æĺ¯": 1994,
      "å¾Ģ": 1995,
      "Ġar": 1996,
      "åºĹ": 1997,
      "ç«Ļ": 1998,
      "è¡£": 1999,
      "ç®Ģåįķ": 2000,
      "é¤Ĳåİħ": 2001,
      "åª": 2002,
      "vent": 2003,
      "çļĦä¸»è¦ģ": 2004,
      "ç¬¦": 2005,
      "--------": 2006,
      "åĩĨç¡®": 2007,
      "çīĽ": 2008,
      "pend": 2009,
      "ĊĠĠĠĠĠ": 2010,
      "å±ħ": 2011,
      "åºŃ": 2012,
      "çīĮ": 2013,
      "Key": 2014,
      "å¾®": 2015,
      "çļĦéĩįè¦ģ": 2016,
      "ww": 2017,
      "åĪĩ": 2018,
      "é¼": 2019,
      "åĿĩ": 2020,
      "ä½ĵéªĮ": 2021,
      "éĺħ": 2022,
      "è§ĤçĤ¹": 2023,
      "çĶŁæĪĲä¸Ģä¸ª": 2024,
      "éº": 2025,
      "éģ¿åħį": 2026,
      "åĪ¶ä½ľ": 2027,
      "reate": 2028,
      "ST": 2029,
      "ç»ĩ": 2030,
      "ER": 2031,
      "æĹħè¡Į": 2032,
      "äºī": 2033,
      "¡æŁĵ": 2034,
      "ä½ľçĶ¨": 2035,
      "ry": 2036,
      "çĽĬ": 2037,
      "io": 2038,
      "uil": 2039,
      "æľīåħ³": 2040,
      "ber": 2041,
      "çĶ±äºİ": 2042,
      "å®¢æĪ·": 2043,
      "èĥ½æºĲ": 2044,
      "éĩįè¦ģçļĦ": 2045,
      "ä¼ģä¸ļ": 2046,
      "ethod": 2047,
      "æİªæĸ½": 2048,
      "['": 2049,
      "æ¸¸æĪı": 2050,
      "åĳĬè¯īæĪĳ": 2051,
      "èµ·æĿ¥": 2052,
      "ä½¿åħ¶": 2053,
      "ail": 2054,
      "æ¤į": 2055,
      "é±": 2056,
      "pty": 2057,
      "äºĨä¸Ģä¸ª": 2058,
      "åĩłä¸ª": 2059,
      "Ġle": 2060,
      "Ġat": 2061,
      "åī§": 2062,
      "é±¼": 2063,
      "row": 2064,
      "ob": 2065,
      "èµĦæºĲ": 2066,
      "of": 2067,
      "è¡¨çİ°": 2068,
      "ery": 2069,
      "éĩĩåıĸ": 2070,
      "ç»¿": 2071,
      "çº§": 2072,
      "Ġtest": 2073,
      "æłĳ": 2074,
      "åŁºäºİ": 2075,
      "åĬŁèĥ½": 2076,
      "ĠV": 2077,
      "åıĳçĶŁ": 2078,
      "çĳ": 2079,
      "æ©": 2080,
      "json": 2081,
      "ç±»åŀĭ": 2082,
      "ç¤¾äº¤": 2083,
      "é¾": 2084,
      "ä¸įèĥ½": 2085,
      "èĵ": 2086,
      "æĤ¨åı¯ä»¥": 2087,
      "ä¸ĩ": 2088,
      "è¿ŀ": 2089,
      "å®Ŀ": 2090,
      "Response": 2091,
      "ä¹Łæĺ¯": 2092,
      "ç¨ĭåºı": 2093,
      "å¾ħ": 2094,
      "ific": 2095,
      "param": 2096,
      "icense": 2097,
      "åģĩ": 2098,
      "æĮĳæĪĺ": 2099,
      "çİ°ä»£": 2100,
      "è§Ĵèī²": 2101,
      "æĭ¥æľī": 2102,
      "¾çĹħ": 2103,
      "file": 2104,
      "èī¯": 2105,
      "æ²¹": 2106,
      "data": 2107,
      "lect": 2108,
      "æĢ§åĴĮ": 2109,
      "âĢĿï¼Į": 2110,
      "åĿĹ": 2111,
      "Ar": 2112,
      "æ¹": 2113,
      "Common": 2114,
      "ä¹Łåı¯ä»¥": 2115,
      "æĬķ": 2116,
      "ll": 2117,
      "å¥ĩ": 2118,
      "ä¸°": 2119,
      "æİ§åĪ¶": 2120,
      "å¥¶": 2121,
      "åĬª": 2122,
      "è¿Ļæĺ¯": 2123,
      "âĢĿãĢĤ": 2124,
      "è½¯": 2125,
      "ock": 2126,
      "åĬłåħ¥": 2127,
      "Ġvalue": 2128,
      "ä¸ºäºĨ": 2129,
      "å¦Ĥæŀľä½ł": 2130,
      "ä¸īä¸ª": 2131,
      "åĪ¤": 2132,
      "æ£Ģ": 2133,
      "http": 2134,
      "å¤ľ": 2135,
      "ave": 2136,
      "è¿ĺæĺ¯": 2137,
      "åĪ»": 2138,
      "ĠThis": 2139,
      "are": 2140,
      "æ±¡æŁĵ": 2141,
      "ues": 2142,
      "èĻ½": 2143,
      "éĺħè¯»": 2144,
      "æĿĤ": 2145,
      "åħ³æ³¨": 2146,
      "èĩªçĦ¶è¯Ńè¨Ģ": 2147,
      "æĸ¹æ¡Ī": 2148,
      "abel": 2149,
      "ä¸¾": 2150,
      "èį¯": 2151,
      "åĬªåĬĽ": 2152,
      "åĵªäºĽ": 2153,
      "ception": 2154,
      "æŃ£ç¡®": 2155,
      "Ġval": 2156,
      "éģĩ": 2157,
      "åºľ": 2158,
      "å±Ĥ": 2159,
      "é¦Ĩ": 2160,
      "å®¶åºŃ": 2161,
      "ç¿»": 2162,
      "æĺ¥": 2163,
      "åĩºçİ°": 2164,
      "Ġelse": 2165,
      "')": 2166,
      "._": 2167,
      "èīºæľ¯": 2168,
      "çļĦæİ": 2169,
      "è¯Ĭ": 2170,
      "TI": 2171,
      "èĪĴ": 2172,
      "åıĪ": 2173,
      "åĶ®": 2174,
      "Ġassert": 2175,
      "ĠE": 2176,
      "ray": 2177,
      "path": 2178,
      "éŃ": 2179,
      "ä¼łç»Ł": 2180,
      "Ġ\"\"\"": 2181,
      "çļĦæĸĩç«ł": 2182,
      "\"`": 2183,
      "essage": 2184,
      "ä»İèĢĮ": 2185,
      "è®Ńç»ĥ": 2186,
      "é¢ľ": 2187,
      "æķ£": 2188,
      "ict": 2189,
      "ä¸¥": 2190,
      "çļĦæĬĢ": 2191,
      "å°ıçº¢": 2192,
      "11": 2193,
      "assert": 2194,
      "Ġå°Ĩ": 2195,
      "éĿĻ": 2196,
      "åıĹåĪ°": 2197,
      "æİ¢ç´¢": 2198,
      "äºĭä»¶": 2199,
      "æ²»çĸĹ": 2200,
      "ary": 2201,
      "ä»¥ä¸ĭåı¥åŃĲ": 2202,
      "],": 2203,
      "çķ¥": 2204,
      "ä¸ĬçļĦ": 2205,
      "æľīè¶£": 2206,
      "åĪĽéĢł": 2207,
      "Ġä»İ": 2208,
      "æ²Ļ": 2209,
      "é¢Ħæµĭ": 2210,
      "èĦĳ": 2211,
      "å»ºç«ĭ": 2212,
      "é¸¡": 2213,
      "Request": 2214,
      "çļĦæĻ": 2215,
      "çĶµåŃĲ": 2216,
      "å½Ĵ": 2217,
      "var": 2218,
      "è¿½": 2219,
      "çĸ¾çĹħ": 2220,
      "èĮĥ": 2221,
      "50": 2222,
      "ä½ı": 2223,
      "Ċĉĉĉĉĉĉ": 2224,
      "èĶ": 2225,
      "æ¯Ķè¾ĥ": 2226,
      "çļĦåı¥åŃĲ": 2227,
      "ĠG": 2228,
      "åħ¸": 2229,
      "ach": 2230,
      "Context": 2231,
      "æĿĥ": 2232,
      "Ġ>": 2233,
      "çļĦç¾": 2234,
      "èĻ½çĦ¶": 2235,
      "èī²çļĦ": 2236,
      "code": 2237,
      "éĻ¢": 2238,
      "èŃ": 2239,
      "èĥĮ": 2240,
      "ç¦ı": 2241,
      "çĶŁçī©": 2242,
      "Ġfield": 2243,
      "è´Ńä¹°": 2244,
      "æķĪçİĩ": 2245,
      "åİĭåĬĽ": 2246,
      "æĮī": 2247,
      "ty": 2248,
      "é¸Ł": 2249,
      "date": 2250,
      "è¯¦": 2251,
      "åį¡": 2252,
      "åªĴ": 2253,
      "æĿ¯": 2254,
      "escri": 2255,
      "Ġåľ¨": 2256,
      "éĨ": 2257,
      "ç»Ħç»ĩ": 2258,
      "empty": 2259,
      "çŁ³": 2260,
      "æ´ĭ": 2261,
      "IN": 2262,
      "ä¸įä»ħ": 2263,
      "çłģ": 2264,
      "æľĢç»Ī": 2265,
      "().": 2266,
      "ä¸´": 2267,
      "ç§ĭ": 2268,
      "æĤ£": 2269,
      "è¯Ħè®º": 2270,
      "stance": 2271,
      "Ġimport": 2272,
      "Ġname": 2273,
      "ç¼º": 2274,
      "é£İéĻ©": 2275,
      "äºĳ": 2276,
      "éļıçĿĢ": 2277,
      "åĽłç´ł": 2278,
      "åĽ°": 2279,
      "å°¼": 2280,
      "æĿ¥è¯´": 2281,
      "ä»·åĢ¼": 2282,
      "æľºä¼ļ": 2283,
      "é²ľ": 2284,
      "çĽĳ": 2285,
      "æĽ²": 2286,
      "Ġdata": 2287,
      "lock": 2288,
      "æĻ®": 2289,
      "quire": 2290,
      "ä¹ĭéĹ´çļĦ": 2291,
      "ä¿ĥ": 2292,
      "çļĦæĦı": 2293,
      "æµª": 2294,
      "Ġk": 2295,
      "ä¸°å¯Į": 2296,
      "äººå·¥æĻºèĥ½æĬĢæľ¯": 2297,
      "çĵ": 2298,
      "çļĦæī": 2299,
      "rent": 2300,
      "æ¥": 2301,
      "pos": 2302,
      "æ°ĶåĢĻåıĺåĮĸ": 2303,
      "çĥ¤": 2304,
      "ool": 2305,
      "å°±æĺ¯": 2306,
      "erm": 2307,
      "çĶŁåĳ½": 2308,
      "åİŁåĽł": 2309,
      "åĨ°": 2310,
      "ac": 2311,
      "Ġwe": 2312,
      "æł¡": 2313,
      "ç½Ĺ": 2314,
      "åħ¬åĽŃ": 2315,
      "åı¶": 2316,
      "è¡¨æĺİ": 2317,
      "æĪĳä»¬éľĢè¦ģ": 2318,
      "æīįèĥ½": 2319,
      "ivate": 2320,
      "åĿļ": 2321,
      "çĶŁæĢģ": 2322,
      "æĿ¥è¶Ĭ": 2323,
      "æ±½": 2324,
      "è¶ĬæĿ¥è¶Ĭ": 2325,
      "ĠString": 2326,
      "å¼Ģåıĳ": 2327,
      "çªģ": 2328,
      "ress": 2329,
      "æĹı": 2330,
      "çĶŁäº§": 2331,
      "æĶ¿åºľ": 2332,
      "util": 2333,
      "pected": 2334,
      "ä¸Ģä»½": 2335,
      "ask": 2336,
      "äº²": 2337,
      "è·ĳ": 2338,
      "Field": 2339,
      "æĿĲæĸĻ": 2340,
      "ç»ĵæŀĦ": 2341,
      "ames": 2342,
      "æĶ¹åıĺ": 2343,
      "éĴŁ": 2344,
      "èĴ": 2345,
      "è¯¦ç»Ĩ": 2346,
      "gr": 2347,
      "åĩĨå¤ĩ": 2348,
      "ç¼ĸè¾ĳ": 2349,
      "://": 2350,
      "æ¯ĶèµĽ": 2351,
      "è¡Įä¸ļ": 2352,
      "Ġ//": 2353,
      "rans": 2354,
      "æĢİä¹Ī": 2355,
      "ä¸Ģä½į": 2356,
      "ix": 2357,
      "èĵĿ": 2358,
      "åªĴä½ĵ": 2359,
      "å³": 2360,
      "çļĦç¾İ": 2361,
      "oid": 2362,
      "åĬŀ": 2363,
      "åĤ": 2364,
      "ME": 2365,
      "é£İæł¼": 2366,
      "è¡¡": 2367,
      "ç»ıéªĮ": 2368,
      "time": 2369,
      "ong": 2370,
      "å·¥åħ·": 2371,
      "å½©": 2372,
      "ä¸ĢæŃ¥": 2373,
      "Ġyou": 2374,
      "è¿ĺåı¯ä»¥": 2375,
      "{}": 2376,
      "ert": 2377,
      "å¼Ĥ": 2378,
      "ia": 2379,
      "åĳ¼": 2380,
      "ument": 2381,
      "èĩªçĦ¶è¯Ńè¨Ģå¤ĦçĲĨ": 2382,
      "Ġpre": 2383,
      "æĽ´å¤ļçļĦ": 2384,
      "è¯Ńæ³ķ": 2385,
      "è´£": 2386,
      "å¦ĤæŀľæĤ¨": 2387,
      "æ³¢": 2388,
      "çļĦæµ": 2389,
      "====": 2390,
      "heck": 2391,
      "Data": 2392,
      "line": 2393,
      "æĹ¶åĢĻ": 2394,
      "èľ": 2395,
      "ses": 2396,
      "ç¾¤": 2397,
      "åıĺå¾Ĺ": 2398,
      "é¡»": 2399,
      "Ġ/": 2400,
      "å½ĵåľ°": 2401,
      "Output": 2402,
      "æ°´æŀľ": 2403,
      "from": 2404,
      "ä½ľèĢħ": 2405,
      "æĸĩæ¡Ī": 2406,
      "è®¨è®º": 2407,
      "Service": 2408,
      "ä¸ĵä¸ļ": 2409,
      "ctx": 2410,
      "é¡¹çĽ®": 2411,
      "ache": 2412,
      "å¿ĥçĲĨ": 2413,
      "åĲįç§°": 2414,
      "è¯ĬæĸŃ": 2415,
      "ç¬Ķ": 2416,
      "åľŁ": 2417,
      "æ´²": 2418,
      "At": 2419,
      "äº«åıĹ": 2420,
      "çļĦæĸ¹æ³ķ": 2421,
      "æĭŁ": 2422,
      "å¤ļå°ĳ": 2423,
      "face": 2424,
      "é¢Ĺ": 2425,
      "çļĦæĥħæĦŁ": 2426,
      "çĻ¾": 2427,
      "ä¼¤": 2428,
      "ä»¥ä¸ĭæĺ¯": 2429,
      "Equal": 2430,
      "####": 2431,
      "Exception": 2432,
      "çī¹å¾ģ": 2433,
      "Cont": 2434,
      "Ġser": 2435,
      "Ġrequest": 2436,
      "å¯»æī¾": 2437,
      "atic": 2438,
      "å¤§éĩı": 2439,
      "ä»¥ä¸ĭæĸĩæľ¬": 2440,
      "è®¾å¤ĩ": 2441,
      "ç¼ĵ": 2442,
      "Ġpl": 2443,
      "è¿İ": 2444,
      "mt": 2445,
      "å¹´è½»": 2446,
      "Config": 2447,
      "çķĻ": 2448,
      "è¯ĳ": 2449,
      "è¡ĮåĬ¨": 2450,
      "Ch": 2451,
      "(),": 2452,
      "çļ®": 2453,
      "å®ĥçļĦ": 2454,
      "è¯¢": 2455,
      "éĤ®": 2456,
      "é¢ĺçĽ®": 2457,
      "æľ¨": 2458,
      "åĩ»": 2459,
      "éĺ¿": 2460,
      "åķĨåĵģ": 2461,
      "ĠU": 2462,
      "çŁ¥è¯Ĩ": 2463,
      "é£Łåĵģ": 2464,
      "éĿĴ": 2465,
      "Ġfile": 2466,
      "çĤ¼": 2467,
      "çĸ«": 2468,
      "Ġx": 2469,
      "ĠNone": 2470,
      "å¨ģ": 2471,
      "æ¯į": 2472,
      "ä¸Ńå¿ĥ": 2473,
      "inter": 2474,
      "ava": 2475,
      "ä¸Ģå®ļ": 2476,
      "å½ķ": 2477,
      "ĠType": 2478,
      "åĲ§": 2479,
      "Ġlen": 2480,
      "co": 2481,
      "Ap": 2482,
      "ĠLicense": 2483,
      "Ġresult": 2484,
      "åıĤåĬł": 2485,
      "åħ´è¶£": 2486,
      "åĵģçīĮ": 2487,
      "è´ŁéĿ¢": 2488,
      "é¢ľèī²": 2489,
      "åľ¨è¿Ļä¸ª": 2490,
      "ä»·æł¼": 2491,
      "æĶ¹åĸĦ": 2492,
      "ä½ľåĵģ": 2493,
      "äº®": 2494,
      "\");": 2495,
      "ens": 2496,
      "åįı": 2497,
      "ĠæĪĳ": 2498,
      "He": 2499,
      "çļĦæĸĩæľ¬": 2500,
      "Status": 2501,
      "çļĦæĶ": 2502,
      "ak": 2503,
      "yn": 2504,
      "ç´§": 2505,
      "umber": 2506,
      "æ¯ıä¸ªäºº": 2507,
      "åħħæ»¡": 2508,
      "èĶ¬": 2509,
      "ä¸ºä»Ģä¹Ī": 2510,
      "åľºæĻ¯": 2511,
      "ä»į": 2512,
      "çģµ": 2513,
      "Ġinter": 2514,
      "å·®": 2515,
      "åį°": 2516,
      "args": 2517,
      "ther": 2518,
      "åĩºäºĨ": 2519,
      "ĥåľ": 2520,
      "å·ŀ": 2521,
      "åŀĥåľ": 2522,
      "åŀĥåľ¾": 2523,
      "èĳĹåĲį": 2524,
      "çŃĳ": 2525,
      "work": 2526,
      "ric": 2527,
      "æĽ¿": 2528,
      "çĦ¶èĢĮ": 2529,
      "è¿Ļä¸ªéĹ®é¢ĺ": 2530,
      "æ»©": 2531,
      "åĲ¸å¼ķ": 2532,
      "Ġadd": 2533,
      "ting": 2534,
      "api": 2535,
      "æ¯ıå¤©": 2536,
      "Ġlist": 2537,
      "çļĦæŃ": 2538,
      "éĩİ": 2539,
      "åĬ±": 2540,
      "RE": 2541,
      "èĥľ": 2542,
      "æ±½è½¦": 2543,
      "åı¯æĮģç»Ń": 2544,
      "iew": 2545,
      "åĨĽ": 2546,
      "100": 2547,
      "ä½³": 2548,
      "åĨ³å®ļ": 2549,
      "å¤įæĿĤ": 2550,
      "ä¸ĢçĽ´": 2551,
      "ates": 2552,
      "pre": 2553,
      "æĢ§çļĦ": 2554,
      "é¢ĳ": 2555,
      "åĽ¢éĺŁ": 2556,
      "ions": 2557,
      "éĢĲ": 2558,
      "åŃ©åŃĲ": 2559,
      "åĲĪä½ľ": 2560,
      "èĪĴéĢĤ": 2561,
      "æĪĳä¼ļ": 2562,
      "čĊ": 2563,
      "çļĦæ¸": 2564,
      "ss": 2565,
      "Ġwill": 2566,
      "åĬ©äºİ": 2567,
      "åº§": 2568,
      "Value": 2569,
      "ĠĠĠĠĠ": 2570,
      "åĪĽæĸ°": 2571,
      "Ġcol": 2572,
      "ĊĠĠĠĠĠĠĠĠĠĠĠĠĠĠĠĠĠĠĠĠĠĠĠ": 2573,
      "å·¨": 2574,
      "éĥ¨çĶµå½±": 2575,
      "æ¤įçī©": 2576,
      "çľł": 2577,
      "ç¾İä¸½": 2578,
      "å°Ĭ": 2579,
      "è¶ĭ": 2580,
      "åĮĹäº¬": 2581,
      "ĊĠĠĠĠĠĠĠĠĠĠĠĠĠĠĠĠĠĠĠĠĠĠĠĠ": 2582,
      "å¿ħé¡»": 2583,
      "ä¼ĳ": 2584,
      "valid": 2585,
      "æķ°åŃĹ": 2586,
      "æħ¢": 2587,
      "éĩįæĸ°": 2588,
      "ark": 2589,
      "äºĭæĥħ": 2590,
      "çł´": 2591,
      "æŃ¢": 2592,
      "éĢłæĪĲ": 2593,
      "ä¸Ģæ¬¡": 2594,
      "æĿ¿": 2595,
      "è¿Ļåı¥è¯Ŀ": 2596,
      "èĶ¬èıľ": 2597,
      "ç§ĺ": 2598,
      "å»ºçŃĳ": 2599,
      "æ¶ī": 2600,
      "çĹĩ": 2601,
      "éĢģ": 2602,
      "æ¼«": 2603,
      "cont": 2604,
      "Ġ|": 2605,
      "æ·±åº¦": 2606,
      "çĩ": 2607,
      "Param": 2608,
      "çļĦæķħäºĭ": 2609,
      "ound": 2610,
      "ãĢĤ\"": 2611,
      "çĿ¡": 2612,
      "ich": 2613,
      "åľ°åĮº": 2614,
      "Ġnull": 2615,
      "orm": 2616,
      "æĶ¾æĿ¾": 2617,
      "åĨľ": 2618,
      "Test": 2619,
      "çľĭåĪ°": 2620,
      "èŃ¦": 2621,
      "çļĦçŁ": 2622,
      "ç¿»è¯ĳ": 2623,
      "())": 2624,
      "Ġtime": 2625,
      "Ġdo": 2626,
      "])": 2627,
      "çºª": 2628,
      "plic": 2629,
      "æīĭæľº": 2630,
      "åĪĿ": 2631,
      "ally": 2632,
      "è®²è¿°": 2633,
      "éĩĳèŀį": 2634,
      "ç»ª": 2635,
      "Ġkey": 2636,
      "Ġorg": 2637,
      "çļĦçĶµå½±": 2638,
      "Map": 2639,
      "ink": 2640,
      "Ġpos": 2641,
      "éļĲ": 2642,
      "å¸®æĪĳ": 2643,
      "æĺ¯åľ¨": 2644,
      "æ²³": 2645,
      "Ġtrue": 2646,
      "åĪ¤æĸŃ": 2647,
      "æľīåĬ©äºİ": 2648,
      "own": 2649,
      "èģĬ": 2650,
      "ä»£è¡¨": 2651,
      "æ·»": 2652,
      "åĪ¶å®ļ": 2653,
      "ä¸įä¼ļ": 2654,
      "èĢĮä¸Ķ": 2655,
      "ç§»": 2656,
      "è§īå¾Ĺ": 2657,
      "åĵĪ": 2658,
      "Ġspec": 2659,
      "Group": 2660,
      "ccess": 2661,
      "æĪĳåı¯ä»¥": 2662,
      "è¶ĭåĬ¿": 2663,
      "Size": 2664,
      "ifi": 2665,
      "éĶ»": 2666,
      "By": 2667,
      "æ¸Ĳ": 2668,
      "Add": 2669,
      "15": 2670,
      "ä¿ĥè¿Ľ": 2671,
      "éĩĩçĶ¨": 2672,
      "èª": 2673,
      "ge": 2674,
      "32": 2675,
      "éĶ»çĤ¼": 2676,
      "ä¸ŃæıĲåıĸåĩº": 2677,
      "å°Ĩåħ¶": 2678,
      "çľ¼": 2679,
      "Ġ5": 2680,
      "é©¶": 2681,
      "ĠRe": 2682,
      "ç»ıåİĨ": 2683,
      "ç§ģ": 2684,
      "ream": 2685,
      "çī¹åĪ«": 2686,
      "æ°§": 2687,
      "model": 2688,
      "Ġ*/": 2689,
      "åı¦å¤ĸ": 2690,
      "éĶĢåĶ®": 2691,
      "æĩ": 2692,
      "Qu": 2693,
      "ä¾Ŀ": 2694,
      "èģĶç³»": 2695,
      "gle": 2696,
      "éĤ®ä»¶": 2697,
      "Ġfinal": 2698,
      "æĳĦ": 2699,
      "18": 2700,
      "èĩªçĶ±": 2701,
      "Ġhas": 2702,
      "è¯·éĹ®": 2703,
      "[\"": 2704,
      "èĹ": 2705,
      "ç®Ģæ´ģ": 2706,
      "åį«": 2707,
      "çī¹å®ļ": 2708,
      "å¿Ĺ": 2709,
      "éĴ±": 2710,
      "å°ļ": 2711,
      "åī©": 2712,
      "åºķ": 2713,
      "Ġne": 2714,
      "cre": 2715,
      "èģĮä¸ļ": 2716,
      "PI": 2717,
      "æĥ³è¦ģ": 2718,
      "é©¾": 2719,
      "å¿«éĢŁ": 2720,
      "rame": 2721,
      "æľīä»Ģä¹Ī": 2722,
      "bo": 2723,
      "Ġtheir": 2724,
      "æ¢¦": 2725,
      "è´¢": 2726,
      "çļĦçł": 2727,
      "Int": 2728,
      "ann": 2729,
      "éĥ½æľī": 2730,
      "è¿ĻéĩĮ": 2731,
      "org": 2732,
      "ä¸ºæĤ¨": 2733,
      "new": 2734,
      "çļĦæ²": 2735,
      "åĨ·": 2736,
      "çĭ¬çī¹": 2737,
      "cess": 2738,
      "ors": 2739,
      "çĸĳ": 2740,
      "å°½ç®¡": 2741,
      "æĸĩç«łä¸Ń": 2742,
      "[]": 2743,
      "byte": 2744,
      "çī¹çĤ¹": 2745,
      "opy": 2746,
      "vel": 2747,
      "æĺ¨": 2748,
      "è¡Ģ": 2749,
      "len": 2750,
      "å¼ºè°ĥ": 2751,
      "class": 2752,
      "ç»§": 2753,
      "ttp": 2754,
      "ld": 2755,
      "ns": 2756,
      "value": 2757,
      "çļĦæĮ": 2758,
      "éĴĪ": 2759,
      "éĻįä½İ": 2760,
      "çīĪ": 2761,
      "æĸĩåŃĹ": 2762,
      "Ġvoid": 2763,
      "Ġmay": 2764,
      "æĥ¯": 2765,
      "åŁºç¡": 2766,
      "åı¯ä»¥éĢļè¿ĩ": 2767,
      "ise": 2768,
      "ph": 2769,
      "pes": 2770,
      "åŁºç¡Ģ": 2771,
      "å©": 2772,
      "col": 2773,
      "anag": 2774,
      "Ġå¥½çļĦ": 2775,
      "tem": 2776,
      "ä»¥ä¸Ĭ": 2777,
      "åįļ": 2778,
      "With": 2779,
      "list": 2780,
      "ç²ī": 2781,
      "30": 2782,
      "çĽ®åīį": 2783,
      "çĽĸ": 2784,
      "å®ŀä½ĵ": 2785,
      "Var": 2786,
      "ä¼¦": 2787,
      "Ġtype": 2788,
      "ken": 2789,
      "å±ŀäºİ": 2790,
      "nect": 2791,
      "ä¸įè¦ģ": 2792,
      "å²ģ": 2793,
      "å°Ħ": 2794,
      "ä¸Ģåıª": 2795,
      "æķ°éĩı": 2796,
      "Time": 2797,
      "åĪĽå»º": 2798,
      "cept": 2799,
      "Ġrange": 2800,
      "çļĦæĳ": 2801,
      "å±Ģ": 2802,
      "Ġup": 2803,
      "ded": 2804,
      "æĬĢèĥ½": 2805,
      "è¿Ļæ®µæĸĩæľ¬": 2806,
      "å¡ĳ": 2807,
      "Ġhave": 2808,
      "çļĦæķ°æį®": 2809,
      "éĺ³åħī": 2810,
      "æĹ¨": 2811,
      "æĥĬ": 2812,
      "æ±ĩ": 2813,
      "TypeCommon": 2814,
      "æķ°åŃ¦": 2815,
      "New": 2816,
      "æĲŃ": 2817,
      "Ġunder": 2818,
      "åħ±åĲĮ": 2819,
      "èĪŀ": 2820,
      "çļĦç¤": 2821,
      "åį±": 2822,
      "istr": 2823,
      "ute": 2824,
      "å¹¸": 2825,
      "å½¢å¼ı": 2826,
      "çļĦæĦŁ": 2827,
      "æ¶īåıĬ": 2828,
      "åĨ³çŃĸ": 2829,
      "ä»¤äºº": 2830,
      "çļĦæ¯": 2831,
      "çļĦçĶŁæ´»": 2832,
      "åħ¬åı¸çļĦ": 2833,
      "ç¼ĸåĨĻ": 2834,
      "çī©è´¨": 2835,
      "è¯Ħä»·": 2836,
      "æĬ¥éģĵ": 2837,
      "Ġid": 2838,
      "æĺ¯æĮĩ": 2839,
      "ace": 2840,
      "ĊĠĠ": 2841,
      "ç¾İé£Ł": 2842,
      "yst": 2843,
      "ç«¯": 2844,
      "åĪĨéĴŁ": 2845,
      "ä½įç½®": 2846,
      "ä¸ĢåĲį": 2847,
      "å¢ŀå¼º": 2848,
      "è®©æĪĳ": 2849,
      "ç¤¼": 2850,
      "å¾Īå¥½": 2851,
      "Ġro": 2852,
      "çº³": 2853,
      "æī§": 2854,
      "ä¸ĬæľĢ": 2855,
      "Ġstruct": 2856,
      "æķ´ä¸ª": 2857,
      "åį´": 2858,
      "åĮ»åŃ¦": 2859,
      "size": 2860,
      "å¯Ł": 2861,
      "Ġwhich": 2862,
      "èĻļ": 2863,
      "åĬłå¼º": 2864,
      "åĬĽåĴĮ": 2865,
      "èģĶç½ĳ": 2866,
      "âĢĶ": 2867,
      "}},": 2868,
      "ä¹łæĥ¯": 2869,
      "ual": 2870,
      "pace": 2871,
      "ments": 2872,
      "Log": 2873,
      "çļĦå»ºè®®": 2874,
      "è¿Ļä¸Ģ": 2875,
      "Ġall": 2876,
      "ç¬¬äºĮ": 2877,
      "æĬĢå·§": 2878,
      "ä½łèĥ½": 2879,
      "åŁºæľ¬": 2880,
      "è¿Ľä¸ĢæŃ¥": 2881,
      "åıĮ": 2882,
      "å³°": 2883,
      "åħ°": 2884,
      "ĠĠĠĠĠĠ": 2885,
      "def": 2886,
      "ä»ĺ": 2887,
      "ç®ĢçŁŃ": 2888,
      "è±Ĩ": 2889,
      "load": 2890,
      "ä½¿å¾Ĺ": 2891,
      "AR": 2892,
      "åı«": 2893,
      "ä¼°": 2894,
      "æľīäºĽ": 2895,
      "arget": 2896,
      "äººå·¥æĻºèĥ½åľ¨": 2897,
      "ç¥¨": 2898,
      "åįĪ": 2899,
      "ç»Ļå®ļçļĦæĸĩæľ¬": 2900,
      "åĳĺå·¥": 2901,
      "TE": 2902,
      "éĵģ": 2903,
      "è¯´æĺİ": 2904,
      "çļĦæı": 2905,
      "rain": 2906,
      "ç«ŀ": 2907,
      "è¯¾": 2908,
      "æıĲåĪ°": 2909,
      "éª¤": 2910,
      "ody": 2911,
      "oogle": 2912,
      "arch": 2913,
      "äº¤æµģ": 2914,
      "éĩįåĨĻ": 2915,
      "``": 2916,
      "æĭħ": 2917,
      "Ġsu": 2918,
      "unction": 2919,
      "é¼ĵ": 2920,
      "èĪª": 2921,
      "è°¢è°¢": 2922,
      "LE": 2923,
      "è·Ł": 2924,
      "è¿Ļæĺ¯ä¸Ģ": 2925,
      "è¿ĩç¨ĭä¸Ń": 2926,
      "Client": 2927,
      "ä¸įéĶĻ": 2928,
      "æĬ½": 2929,
      "æľīå¾Īå¤ļ": 2930,
      "ç»Ŀ": 2931,
      "éĢı": 2932,
      "0000": 2933,
      "åĪļ": 2934,
      "æ¯Ĵ": 2935,
      "å¥¥": 2936,
      "æĤ£èĢħ": 2937,
      "Th": 2938,
      "åıĤä¸İ": 2939,
      "='": 2940,
      "ystem": 2941,
      "du": 2942,
      "pression": 2943,
      "ç¹": 2944,
      "èĸ": 2945,
      "æ¯Ľ": 2946,
      "æİ¢è®¨": 2947,
      "point": 2948,
      "åģļåĩº": 2949,
      "çĮ®": 2950,
      "èĮ¶": 2951,
      "ç¤¾äº¤åªĴä½ĵ": 2952,
      "çıŃ": 2953,
      "äººåĳĺ": 2954,
      "è¿Ļéĥ¨çĶµå½±": 2955,
      "net": 2956,
      "èķ": 2957,
      "ify": 2958,
      "æľºåĻ¨äºº": 2959,
      "ĠJ": 2960,
      "par": 2961,
      "è¡ĮæĺŁ": 2962,
      "æıĲä¾ĽäºĨ": 2963,
      "rite": 2964,
      "ook": 2965,
      "Ġç»Ļå®ļ": 2966,
      "èĥĮæĻ¯": 2967,
      "éĢŁåº¦": 2968,
      "æľ¬æĸĩ": 2969,
      "æĦ¿": 2970,
      "å®¹æĺĵ": 2971,
      "åįĥ": 2972,
      "è¯ŃéŁ³": 2973,
      "ç»ĦæĪĲ": 2974,
      "åħĥç´ł": 2975,
      "åĸĿ": 2976,
      "å®ĩ": 2977,
      "é¢Ŀ": 2978,
      "ash": 2979,
      "Ċĉĉĉĉĉ": 2980,
      "uild": 2981,
      "éŀ": 2982,
      "SE": 2983,
      "é¥Ń": 2984,
      "éĵ¾": 2985,
      "å¹»": 2986,
      "Info": 2987,
      "åıªæľī": 2988,
      "und": 2989,
      "An": 2990,
      "çļĦæ°´": 2991,
      "ä¹ħ": 2992,
      "è¿Ļæĺ¯ä¸Ģä¸ª": 2993,
      "Ġprivate": 2994,
      "å®£": 2995,
      "Se": 2996,
      "we": 2997,
      "ç»ĥä¹ł": 2998,
      "å½¢æĪĲ": 2999,
      "ptions": 3000,
      "State": 3001,
      "èĢģå¸Ī": 3002,
      "å¤§åĪ©": 3003,
      "è¾ĵåĩº": 3004,
      "urrent": 3005,
      "çļĦçľ": 3006,
      "quired": 3007,
      "ä»¥ä¾¿": 3008,
      "åĿĲ": 3009,
      "ä½Ļ": 3010,
      "æ¬¢è¿İ": 3011,
      "æĢĿèĢĥ": 3012,
      "\"]": 3013,
      "ç¬ĳ": 3014,
      "Met": 3015,
      "å®ŀéĻħ": 3016,
      "sed": 3017,
      "æĦŁè°¢": 3018,
      "çģ¾": 3019,
      "ical": 3020,
      "Al": 3021,
      "æĦıè¯Ĩ": 3022,
      "é¡º": 3023,
      "é¹": 3024,
      "Path": 3025,
      "16": 3026,
      "æĬķèµĦ": 3027,
      "æĦıä¹ī": 3028,
      "æĦŁè§ī": 3029,
      "æ°´å¹³": 3030,
      "æĸĩåŃ¦": 3031,
      "rib": 3032,
      "ç»§ç»Ń": 3033,
      "èĲ¥åħ»": 3034,
      "èģļ": 3035,
      "éĢĤå½ĵ": 3036,
      "Ġlog": 3037,
      "åģı": 3038,
      "ite": 3039,
      "åĪĨäº«": 3040,
      "åı¯ä»¥åľ¨": 3041,
      "åķĬ": 3042,
      "æ©Ļ": 3043,
      "åŃ¦æł¡": 3044,
      "çŃīæĸ¹éĿ¢": 3045,
      "è®©äºº": 3046,
      "çļĦæĹ¶éĹ´": 3047,
      "å¸¸è§ģ": 3048,
      "æ»¡è¶³": 3049,
      "èĩªæĪĳ": 3050,
      "ä¼´": 3051,
      "Ġyour": 3052,
      "dition": 3053,
      "è½¯ä»¶": 3054,
      "å®ĺ": 3055,
      "æĿ¡ä»¶": 3056,
      "èĪ¬": 3057,
      "Ġab": 3058,
      "True": 3059,
      "user": 3060,
      "åĽ½å®¶": 3061,
      "enc": 3062,
      "éĵ¶": 3063,
      "æ¸ħæĻ": 3064,
      "çĦ¦": 3065,
      "çİĽ": 3066,
      "åĲįåŃĹ": 3067,
      "lp": 3068,
      "èĮĥåĽ´": 3069,
      "æĭ¿": 3070,
      "åįĬ": 3071,
      "çĥĪ": 3072,
      "éĢīé¡¹": 3073,
      "py": 3074,
      "æ£ĢæŁ¥": 3075,
      "200": 3076,
      "é©¾é©¶": 3077,
      "Ġcontext": 3078,
      "ä¸įåı¯": 3079,
      "æ·»åĬł": 3080,
      "çĨŁ": 3081,
      "ä½įäºİ": 3082,
      "æŃ£éĿ¢": 3083,
      "çļĦæĬĢæľ¯": 3084,
      "Not": 3085,
      "æ¦Ĥæĭ¬": 3086,
      "print": 3087,
      "ning": 3088,
      "56": 3089,
      "...": 3090,
      "èĲ¨": 3091,
      "åģ¥èº«": 3092,
      "Com": 3093,
      "æ·±åº¦åŃ¦ä¹ł": 3094,
      "ä¸ªèĭ¹æŀľ": 3095,
      "å¹³è¡¡": 3096,
      "lete": 3097,
      "ilter": 3098,
      "åŁ¹": 3099,
      "åĪĽæĦı": 3100,
      "é¾Ļ": 3101,
      "Ġstatic": 3102,
      "Resource": 3103,
      "è¸": 3104,
      "åĽ¾åĥı": 3105,
      "Object": 3106,
      "ç©ºæ°Ķ": 3107,
      "Val": 3108,
      "Ġad": 3109,
      "æĲľ": 3110,
      "lection": 3111,
      "ç»ıå¸¸": 3112,
      "Ġdis": 3113,
      "æĸ¹åĲĳ": 3114,
      "åºĶå¯¹": 3115,
      "url": 3116,
      "map": 3117,
      "ä¸¥éĩį": 3118,
      "Ġprov": 3119,
      "());": 3120,
      "plo": 3121,
      "çļĦæĸ¹å¼ı": 3122,
      "ax": 3123,
      "æĬ±": 3124,
      "é«ĺçļĦ": 3125,
      "Ġuser": 3126,
      "ç¼ĸç¨ĭ": 3127,
      "æĮīçħ§": 3128,
      "Ġmore": 3129,
      "ommand": 3130,
      "çļĦä¸»é¢ĺ": 3131,
      "ĊĊĉ": 3132,
      "å¼ķèµ·": 3133,
      "çļĦæłĩ": 3134,
      "å¤ļä¸ª": 3135,
      "çī©åĵģ": 3136,
      "led": 3137,
      "å¤ļç§į": 3138,
      "andl": 3139,
      "åıĺæļĸ": 3140,
      "éĿ¢ä¸´": 3141,
      "è´Ńçī©": 3142,
      "èµı": 3143,
      "éŀĭ": 3144,
      "å¥ĸ": 3145,
      "www": 3146,
      "sg": 3147,
      "è¿·": 3148,
      "ackage": 3149,
      "Ġä¸º": 3150,
      "åĳ¼åĲ¸": 3151,
      "é¡¾": 3152,
      "omit": 3153,
      "IT": 3154,
      "case": 3155,
      "æ½ľ": 3156,
      "ä¼ļè®®": 3157,
      "Im": 3158,
      "be": 3159,
      "çŁŃè¯Ń": 3160,
      "Ġjava": 3161,
      "åĿı": 3162,
      "è¯»èĢħ": 3163,
      "å®ł": 3164,
      "Node": 3165,
      "imit": 3166,
      "éŃĶ": 3167,
      "æľ«": 3168,
      "å¤ıå¤©": 3169,
      "çºł": 3170,
      "çļĦå¤©æ°Ķ": 3171,
      "omitempty": 3172,
      "ç¨³": 3173,
      "ç¢³": 3174,
      "åĨ¬": 3175,
      "Ġhttp": 3176,
      "CE": 3177,
      "rap": 3178,
      "çļĦå°ı": 3179,
      "æĦī": 3180,
      "è´µ": 3181,
      "è®©æĪĳä»¬": 3182,
      "äºĭå®ŀ": 3183,
      "ithub": 3184,
      "æķħ": 3185,
      "æĽ¾": 3186,
      "æ´ŀ": 3187,
      "åİ»äºĨ": 3188,
      "ç¹ģ": 3189,
      "Ġsup": 3190,
      "gener": 3191,
      "æľĹ": 3192,
      "read": 3193,
      "AN": 3194,
      "æ¬§": 3195,
      "ĊĠĠĠĠĠĠĠĠĠĠĠĠĠĠĠĠĠĠĠĠĠĠĠĠĠĠĠĠĠĠĠĠ": 3196,
      "Ġ)": 3197,
      "çļĦçĪ": 3198,
      "åĬĽéĩı": 3199,
      "åĲįè¯į": 3200,
      "æľ¬ä¹¦": 3201,
      "æĹ¥å¸¸": 3202,
      "çļĦåħ³éĶ®": 3203,
      "å¦Ĥä¸ĭ": 3204,
      "æ³³": 3205,
      "Ġç»ĻæĪĳ": 3206,
      "åķĨä¸ļ": 3207,
      "è¯ĹæŃĮ": 3208,
      "è·Ŀ": 3209,
      "éħ¸": 3210,
      "åģľ": 3211,
      "æ´Ĺ": 3212,
      "ä¸ĭæĿ¥": 3213,
      "ç±»åĪ«": 3214,
      "éĽª": 3215,
      "Ġ**": 3216,
      "å§Ĩ": 3217,
      "Ġused": 3218,
      "Pr": 3219,
      "ating": 3220,
      "éĿł": 3221,
      "æ£®": 3222,
      "å¤«": 3223,
      "åŃ¤": 3224,
      "æŃ»": 3225,
      "Ġdefault": 3226,
      "Ġparam": 3227,
      "æŁĶ": 3228,
      "åĭĩ": 3229,
      "çľģ": 3230,
      "éĻĪ": 3231,
      "github": 3232,
      "éĢĤåºĶ": 3233,
      "éĢĶ": 3234,
      "æĴŃ": 3235,
      "è°Ī": 3236,
      "client": 3237,
      "æıĲåĪ°äºĨ": 3238,
      "ç³»åĪĹ": 3239,
      "çŃĸçķ¥": 3240,
      "çĶľ": 3241,
      "çİ°å®ŀ": 3242,
      "å¹³åĿĩ": 3243,
      "æĽ´å¥½çļĦ": 3244,
      "ï¼ĮâĢľ": 3245,
      "ç¥ŀç»ı": 3246,
      "å¹³åı°": 3247,
      "UR": 3248,
      "çļĦå·¥ä½ľ": 3249,
      "ç»ıåħ¸": 3250,
      "Ġincl": 3251,
      "ility": 3252,
      "çļĦçłĶç©¶": 3253,
      "ome": 3254,
      "çĶµè§Ĩ": 3255,
      "åĩºæĿ¥": 3256,
      "lean": 3257,
      "åĲĮæĹ¶ä¹Ł": 3258,
      "File": 3259,
      "èĲ¥éĶĢ": 3260,
      "å²Ľ": 3261,
      "ml": 3262,
      "gth": 3263,
      "æ³ķå¾ĭ": 3264,
      "é¥°": 3265,
      "Ġfalse": 3266,
      "dict": 3267,
      "ample": 3268,
      "æ²ī": 3269,
      "è°ĥæķ´": 3270,
      "ç¾İåĳ³": 3271,
      "æİĴæĶ¾": 3272,
      "çļĦæ´": 3273,
      "çļĦæľĢ": 3274,
      "æī¿": 3275,
      "éħ±": 3276,
      "å¤§åŃ¦": 3277,
      "çļĦç¬": 3278,
      "å¯¹è¯ĿåĨħå®¹": 3279,
      "å½ĵçĦ¶åı¯ä»¥": 3280,
      "éģĹ": 3281,
      "åĢĭ": 3282,
      "åĢ¼å¾Ĺ": 3283,
      "æ¸ħæĻ°": 3284,
      "public": 3285,
      "è¿ĩåİ»": 3286,
      "ä»Ģä¹Īæĺ¯": 3287,
      "çļĦæĥħåĨµ": 3288,
      "èĤ¡": 3289,
      "æ¸©åº¦": 3290,
      "å®łçī©": 3291,
      "è´§": 3292,
      "æľīä¸Ģä¸ª": 3293,
      "Ġtrans": 3294,
      "æķĪæŀľ": 3295,
      "ater": 3296,
      "çķħ": 3297,
      "duct": 3298,
      "ov": 3299,
      "ä¼½": 3300,
      "æĺ¨å¤©": 3301,
      "è¿ĽæŃ¥": 3302,
      "min": 3303,
      "æľīçĿĢ": 3304,
      "tes": 3305,
      "ç§ĳåŃ¦å®¶": 3306,
      "sw": 3307,
      "34": 3308,
      "ä¼ĺåĮĸ": 3309,
      "Up": 3310,
      "ŁéĢļ": 3311,
      "å°Ĩä¼ļ": 3312,
      "å°ıæĹ¶": 3313,
      "éĿ©": 3314,
      "è¶ħè¿ĩ": 3315,
      "Action": 3316,
      "è§Ĩè§ī": 3317,
      "æĵį": 3318,
      "é«ĺæķĪ": 3319,
      "https": 3320,
      "Version": 3321,
      "åĽłä¸ºå®ĥ": 3322,
      "å¿ĺ": 3323,
      "so": 3324,
      "Ġmodel": 3325,
      "æİĮ": 3326,
      "éľ²": 3327,
      "OR": 3328,
      "****": 3329,
      "Ġhelp": 3330,
      "Ġout": 3331,
      "olic": 3332,
      "èĨ": 3333,
      "å¿Ĩ": 3334,
      "æµĭè¯ķ": 3335,
      "åıĸå¾Ĺ": 3336,
      "æ··": 3337,
      "config": 3338,
      "ä¹³": 3339,
      "éĴĪå¯¹": 3340,
      "èĹı": 3341,
      "ys": 3342,
      "ative": 3343,
      "å¥Ĺ": 3344,
      "çĽ¸åĲĮ": 3345,
      "ç³ķ": 3346,
      "ude": 3347,
      "çļĦåľ°æĸ¹": 3348,
      "è°ģ": 3349,
      "TP": 3350,
      "Ġmake": 3351,
      "99": 3352,
      "Ġsub": 3353,
      "ç½ĳç«Ļ": 3354,
      "äºĴèģĶç½ĳ": 3355,
      "ä¿®æĶ¹": 3356,
      "çĨĬ": 3357,
      "çļĦæ®": 3358,
      "å¹¶åľ¨": 3359,
      "action": 3360,
      "80": 3361,
      "è´£ä»»": 3362,
      "Ġem": 3363,
      "æľĢåĸľæ¬¢": 3364,
      "æĺ¯çļĦ": 3365,
      "æļĹ": 3366,
      "this": 3367,
      "å¤ļæł·": 3368,
      "Code": 3369,
      "æĹ¶å°ļ": 3370,
      "éģĵå¾·": 3371,
      "55": 3372,
      "aw": 3373,
      "è·³": 3374,
      "çļĦç¤¾": 3375,
      "éļľ": 3376,
      "md": 3377,
      "Ġext": 3378,
      "escription": 3379,
      "arsh": 3380,
      "ľä¼½": 3381,
      "nal": 3382,
      "ä¾ĭåŃĲ": 3383,
      "è¯Ħä¼°": 3384,
      "æĶ¿çŃĸ": 3385,
      "åĽ°éļ¾": 3386,
      "æ¥¼": 3387,
      "çº½": 3388,
      "å±ķç¤º": 3389,
      "æµ·æ´ĭ": 3390,
      "åĨ²": 3391,
      "æĪĳä»¬åºĶè¯¥": 3392,
      "è¿Ļä¸ªåı¥åŃĲ": 3393,
      "é¼ĵåĬ±": 3394,
      "åı£æĦŁ": 3395,
      "xb": 3396,
      "Ġ+=": 3397,
      "Rule": 3398,
      "å¢ŀéķ¿": 3399,
      "æĺİå¤©": 3400,
      "ell": 3401,
      "è¶³å¤Ł": 3402,
      "çŃīé¢ĨåŁŁ": 3403,
      "èĭ±è¯Ń": 3404,
      "å®ĥä»¬çļĦ": 3405,
      "èĦļ": 3406,
      "ĊĊĠĠĠĠĠĠĠĠĠĠĠ": 3407,
      "ission": 3408,
      "æ¨¡å¼ı": 3409,
      "äººçī©": 3410,
      "loat": 3411,
      "åĲĪéĢĤ": 3412,
      "é¡¿": 3413,
      "not": 3414,
      "åľ°çĤ¹": 3415,
      "å®Ī": 3416,
      "å®Ļ": 3417,
      "æıĲåĩº": 3418,
      "back": 3419,
      "å¹¿åĳĬ": 3420,
      "æı¡": 3421,
      "åħ¨çĲĥåıĺæļĸ": 3422,
      "æĹ¥æľ¬": 3423,
      "åĪĽä½ľ": 3424,
      "AS": 3425,
      "ices": 3426,
      "éĨĴ": 3427,
      "mat": 3428,
      "è¯įæ±ĩ": 3429,
      "Ġvalues": 3430,
      "Ġother": 3431,
      "pert": 3432,
      "01": 3433,
      "è¢ĭ": 3434,
      "ç£": 3435,
      "ä¸Ģæł·": 3436,
      "ä¸ªç³ĸæŀľ": 3437,
      "ider": 3438,
      "æ¸¸æ³³": 3439,
      "åĨĴ": 3440,
      "åºĵ": 3441,
      "çĻ»": 3442,
      "åĮĸçļĦ": 3443,
      "ages": 3444,
      "Ġ.": 3445,
      "æĸĩæľ¬ä¸Ń": 3446,
      "åĨĻä½ľ": 3447,
      "æĲľç´¢": 3448,
      "Index": 3449,
      "æĹ¥æľŁ": 3450,
      "ç¬¦åĲĪ": 3451,
      "Ġper": 3452,
      "çļĦéĩįè¦ģæĢ§": 3453,
      "æ£Ĵ": 3454,
      "The": 3455,
      "ä¹ĭåīį": 3456,
      "èİ·åıĸ": 3457,
      "Ġclass": 3458,
      "å®ĩå®Ļ": 3459,
      "Ġmap": 3460,
      "Ġlocal": 3461,
      "æĶ¹è¿Ľ": 3462,
      "lob": 3463,
      "uster": 3464,
      "Ġshould": 3465,
      "ç»¿èī²": 3466,
      "å¡ĳæĸĻ": 3467,
      "None": 3468,
      "çļĦå¤§": 3469,
      "irst": 3470,
      "æ·±åħ¥": 3471,
      "åºĬ": 3472,
      "ç«¥": 3473,
      "Query": 3474,
      "å¿ħè¦ģ": 3475,
      "éĻĲåĪ¶": 3476,
      "æļ´": 3477,
      "æľĿ": 3478,
      "è§£åĨ³æĸ¹æ¡Ī": 3479,
      "Ġoff": 3480,
      "èį¯çī©": 3481,
      "Col": 3482,
      "åºĶçĶ¨ç¨ĭåºı": 3483,
      "Ġme": 3484,
      "çĽ¸ä¼¼": 3485,
      "ef": 3486,
      "çļĦçĥ": 3487,
      "ĊĊĠ": 3488,
      "Ġany": 3489,
      "çĪ±æĥħ": 3490,
      "ĠGet": 3491,
      "ç§Ģ": 3492,
      "ĠIf": 3493,
      "ç»ĨèĬĤ": 3494,
      "field": 3495,
      "ources": 3496,
      "her": 3497,
      "ä¹İ": 3498,
      "çĬ¶æĢģ": 3499,
      "åĲĪçĲĨ": 3500,
      "åĤ¨": 3501,
      "åĺ": 3502,
      "append": 3503,
      "Ġæııè¿°": 3504,
      "chr": 3505,
      "ä»įçĦ¶": 3506,
      "çļĦè¯Ŀ": 3507,
      "Ġpart": 3508,
      "\\\"": 3509,
      "æ¶Īè´¹": 3510,
      "çļĦæ®µ": 3511,
      "ä¸Ģé¦ĸ": 3512,
      "æĮ¥": 3513,
      "åĢĴ": 3514,
      "User": 3515,
      "çļĦæ°Ķ": 3516,
      "æĹłè®º": 3517,
      "éļĲç§ģ": 3518,
      "(*": 3519,
      "æ±¤": 3520,
      "çģ¯": 3521,
      "æŃ¥éª¤": 3522,
      "æĬ¥åĳĬ": 3523,
      "pen": 3524,
      "æŁĲäºĽ": 3525,
      "å¿«ä¹Ĳ": 3526,
      "è¡Ĺ": 3527,
      "åī©ä¸ĭ": 3528,
      "andler": 3529,
      "ä¹īè¯į": 3530,
      "iver": 3531,
      "å·¦": 3532,
      "å¡Ķ": 3533,
      "çĬ¯": 3534,
      "ĠK": 3535,
      "çĹĽ": 3536,
      "æĥħèĬĤ": 3537,
      "ä¿Ŀåģ¥": 3538,
      "çļĦæµ·": 3539,
      "æĪĳåĸľæ¬¢": 3540,
      "ç«ŀäºī": 3541,
      "çļĦæ®µèĲ½": 3542,
      "åĹ": 3543,
      "è¯·ä½ł": 3544,
      "çļĦå¥½": 3545,
      "æĥħç»ª": 3546,
      "ä»ĭç»įäºĨ": 3547,
      "Ġobject": 3548,
      "conf": 3549,
      "Ġå¯¹": 3550,
      "ç©ºéĹ´": 3551,
      "ç®±": 3552,
      "\"))": 3553,
      "ick": 3554,
      "å¹¸ç¦ı": 3555,
      "åĪ¶éĢł": 3556,
      "èĢĲ": 3557,
      "è£¤": 3558,
      "åıįåºĶ": 3559,
      "æ±ī": 3560,
      "expected": 3561,
      "åŃ£èĬĤ": 3562,
      "ential": 3563,
      "ags": 3564,
      "=\"": 3565,
      "åľ¨å®¶": 3566,
      "èĦĤ": 3567,
      "çĶŁæĢģç³»ç»Ł": 3568,
      "æĬĹ": 3569,
      "åı³": 3570,
      "çī©çĲĨ": 3571,
      "red": 3572,
      "Ġfunc": 3573,
      "ref": 3574,
      "format": 3575,
      "çĦ¦èĻĳ": 3576,
      "ps": 3577,
      "Ġcheck": 3578,
      "çº¸": 3579,
      "les": 3580,
      "æŃ£ç¡®çļĦ": 3581,
      "å°ģ": 3582,
      "æķĳ": 3583,
      "æĪĲæľ¬": 3584,
      "perty": 3585,
      "åĪĨç±»ä¸º": 3586,
      "åĴĮåħ¶ä»ĸ": 3587,
      "åľĨ": 3588,
      "olume": 3589,
      "å·¥ç¨ĭ": 3590,
      "å·§åħĭ": 3591,
      "ove": 3592,
      "ä¸ĸçºª": 3593,
      "ä¸ªæĢ§": 3594,
      "ree": 3595,
      "æ±Ł": 3596,
      "åľ°æĸ¹": 3597,
      "ents": 3598,
      "ware": 3599,
      "åĪĹè¡¨": 3600,
      "äººå·¥æĻºèĥ½çļĦ": 3601,
      "æĬĺ": 3602,
      "åĬ¨ä½ľ": 3603,
      "çº½çº¦": 3604,
      "word": 3605,
      "å½¢å®¹": 3606,
      "èĿ": 3607,
      "å°Ĭéĩį": 3608,
      "è´¡": 3609,
      "Ġqu": 3610,
      "22": 3611,
      "çĳľä¼½": 3612,
      "çļĦé£Łçī©": 3613,
      "åĽ½éĻħ": 3614,
      "çļĦæĹ¶åĢĻ": 3615,
      "bu": 3616,
      "æĭ¼": 3617,
      "Input": 3618,
      "ape": 3619,
      "å¸ģ": 3620,
      "æĦıåĳ³": 3621,
      "perties": 3622,
      "ç»ŃåĨĻ": 3623,
      "ä¸Ģç¯ĩæĸĩç«ł": 3624,
      "the": 3625,
      "XXXX": 3626,
      "Ġç»Ļåĩº": 3627,
      "æł¸": 3628,
      "åı¯èĥ½æĺ¯": 3629,
      "proto": 3630,
      "----------------": 3631,
      "Ġwas": 3632,
      "æī©": 3633,
      "Errorf": 3634,
      "go": 3635,
      "æ¬£": 3636,
      "æ½®": 3637,
      "çļĦæ³": 3638,
      "åĲ¯": 3639,
      "ä¸Ŀ": 3640,
      "Ġno": 3641,
      "åı£åĳ³": 3642,
      "arshal": 3643,
      "è¾Ĩ": 3644,
      "æµĵ": 3645,
      "è·Ŀç¦»": 3646,
      "åº¦åĴĮ": 3647,
      "ç±į": 3648,
      "æĺİç¡®": 3649,
      "Ġgo": 3650,
      "ç¥ŀç§ĺ": 3651,
      "æĪĲéķ¿": 3652,
      "è®°å½ķ": 3653,
      "å¹¶ä¸į": 3654,
      "æıĲä¾Ľä¸Ģä¸ª": 3655,
      "Ġ20": 3656,
      "Ġreg": 3657,
      "åľ¨çº¿": 3658,
      "æľºæŀĦ": 3659,
      "ched": 3660,
      "å¸¦æĿ¥äºĨ": 3661,
      "].": 3662,
      "çļĦä¸»": 3663,
      "çİ°è±¡": 3664,
      "éĢĲæ¸Ĳ": 3665,
      "éĹ²": 3666,
      "è®¿": 3667,
      "old": 3668,
      "Message": 3669,
      "çĽ´æİ¥": 3670,
      "af": 3671,
      "ç¼ĵè§£": 3672,
      "å®ŀéªĮ": 3673,
      "æĿ¥èĩª": 3674,
      "çĽĺ": 3675,
      "Ġwhen": 3676,
      "æŀ¶": 3677,
      "æ´¾": 3678,
      "MP": 3679,
      "000": 3680,
      "Ġmet": 3681,
      "æĦŁåıĹ": 3682,
      "å·§åħĭåĬĽ": 3683,
      "è´¡çĮ®": 3684,
      "åĬ³": 3685,
      "åĩıè½»": 3686,
      "Ġrun": 3687,
      "riter": 3688,
      "ä¸įè¿ĩ": 3689,
      "æİ¨åĬ¨": 3690,
      "ï¼īãĢĤ": 3691,
      "Ġargs": 3692,
      "IP": 3693,
      "åĳ³éģĵ": 3694,
      "its": 3695,
      "ç¥Ŀ": 3696,
      "uration": 3697,
      "Ġvar": 3698,
      "è®©ä½ł": 3699,
      "ä»¥ä¸ĭæĺ¯ä¸Ģ": 3700,
      "å®¶å±ħ": 3701,
      "äººåĲį": 3702,
      "èĤ¤": 3703,
      "Ġfmt": 3704,
      "raw": 3705,
      "è°·": 3706,
      "æĦıåĳ³çĿĢ": 3707,
      "æıĲåįĩ": 3708,
      "æ°¸": 3709,
      "å°ıæĺİæľī": 3710,
      "çļĦåĨħå®¹": 3711,
      "æĢ»æĺ¯": 3712,
      "çĶ¨æĿ¥": 3713,
      "run": 3714,
      "met": 3715,
      "åıĹæ¬¢è¿İ": 3716,
      "For": 3717,
      "éĶħ": 3718,
      "Params": 3719,
      "use": 3720,
      "çĶµèĦĳ": 3721,
      "Array": 3722,
      "èµŀ": 3723,
      "åħ¬åħ±": 3724,
      "ä¸ĸçķĮä¸ĬæľĢ": 3725,
      "AL": 3726,
      "ä¸ĭæĸĩ": 3727,
      "å¤ªç©º": 3728,
      "ä¸Ģå®¶": 3729,
      "å®Įåħ¨": 3730,
      "label": 3731,
      "Ġmethod": 3732,
      "irect": 3733,
      "info": 3734,
      "formation": 3735,
      "±ä¹Ĳ": 3736,
      "çĽĲ": 3737,
      "æĿĳ": 3738,
      "14": 3739,
      "uilder": 3740,
      "Header": 3741,
      "odes": 3742,
      "æī§è¡Į": 3743,
      "åħ¶æ¬¡": 3744,
      "çļĦæĳĺè¦ģ": 3745,
      "fl": 3746,
      "çħ®": 3747,
      "olicy": 3748,
      "anager": 3749,
      "})": 3750,
      "æĻ¯çĤ¹": 3751,
      "ee": 3752,
      "ä¸Ĭåįĩ": 3753,
      "åºĶçĶ¨äºİ": 3754,
      "Ġ6": 3755,
      "åı¥åŃĲä¸Ń": 3756,
      "è·µ": 3757,
      "åį³åı¯": 3758,
      "æ¹ĸ": 3759,
      "æĲŃéħį": 3760,
      "è¿½æ±Ĥ": 3761,
      "æĪĳå¾Ī": 3762,
      "Ġwork": 3763,
      "æĺ¯çĶ±": 3764,
      "æĺł": 3765,
      "æ±ł": 3766,
      "Ġ10": 3767,
      "æĿ°": 3768,
      "vir": 3769,
      "è°ĥæŁ¥": 3770,
      "iles": 3771,
      "çº¢èī²": 3772,
      "ted": 3773,
      "Result": 3774,
      "Or": 3775,
      "Ġte": 3776,
      "æŃ§": 3777,
      "å¿Ļ": 3778,
      "sub": 3779,
      "ainer": 3780,
      "reg": 3781,
      "çīĻ": 3782,
      "Ġus": 3783,
      "oint": 3784,
      "é»İ": 3785,
      "å¥¹çļĦ": 3786,
      "On": 3787,
      "mb": 3788,
      "åħŃ": 3789,
      "åĪĨç»Ļ": 3790,
      "å¾Ħ": 3791,
      "åĽº": 3792,
      "ä¹ĺ": 3793,
      "ç¬¬ä¸Ģ": 3794,
      "gument": 3795,
      "index": 3796,
      "ulum": 3797,
      "Ġbool": 3798,
      "dEx": 3799,
      "è¯įè¯Ń": 3800,
      "æįŁ": 3801,
      "è®¢": 3802,
      "Fields": 3803,
      "æĻļä¸Ĭ": 3804,
      "ake": 3805,
      "çļĦåİĨåı²": 3806,
      "æ»ĳ": 3807,
      "verr": 3808,
      "å¤ıåŃ£": 3809,
      "adata": 3810,
      "çĽ¸ä¿¡": 3811,
      "ync": 3812,
      "æĢ»ä¹ĭ": 3813,
      "ok": 3814,
      "å®½": 3815,
      "åĲ«ä¹ī": 3816,
      "åĢĳ": 3817,
      "æ°Ķä½ĵ": 3818,
      "21": 3819,
      "çĶŁæ´»ä¸Ń": 3820,
      "å®ļä¹ī": 3821,
      "Method": 3822,
      "å¥³æĢ§": 3823,
      "Ġposition": 3824,
      "node": 3825,
      "å®ŀè·µ": 3826,
      "å½ĵåīį": 3827,
      "å¥ĭ": 3828,
      "æĹ©ä¸Ĭ": 3829,
      "ä»¥ç¡®ä¿Ŀ": 3830,
      "ç¨³å®ļ": 3831,
      "åĵªä¸ª": 3832,
      "ie": 3833,
      "çĤº": 3834,
      "ities": 3835,
      "ä½¿åħ¶æĽ´åĬł": 3836,
      "ulumi": 3837,
      "ç»¼": 3838,
      "éĸ": 3839,
      "DE": 3840,
      "Ġinput": 3841,
      "ution": 3842,
      "ä»¿": 3843,
      "Ġresponse": 3844,
      "ures": 3845,
      "ç±»ä¼¼": 3846,
      "ç½ª": 3847,
      "ä¸»ä¹ī": 3848,
      "æĦıæĢĿ": 3849,
      "çīĽå¥¶": 3850,
      "éº¦": 3851,
      "chema": 3852,
      "rows": 3853,
      "ustom": 3854,
      "ply": 3855,
      "å¾ª": 3856,
      "sum": 3857,
      "ension": 3858,
      "NdEx": 3859,
      "çļĦä¸Ģä¸ª": 3860,
      "å°¤": 3861,
      "TTP": 3862,
      "æĦıå¤§åĪ©": 3863,
      "Ġact": 3864,
      "17": 3865,
      "Ġcreate": 3866,
      "çļĦæ´»": 3867,
      "thon": 3868,
      "ä¸ľè¥¿": 3869,
      "åİŁå§ĭ": 3870,
      "Ġ/**": 3871,
      "éĩıåŃĲ": 3872,
      "ized": 3873,
      "ç¤¾åĮº": 3874,
      "ract": 3875,
      "ä¸ĢèĪ¬": 3876,
      "åĳĪ": 3877,
      "æĪ·å¤ĸ": 3878,
      "ike": 3879,
      "çĬ¶åĨµ": 3880,
      "åİļ": 3881,
      "ĠSt": 3882,
      "ased": 3883,
      "ift": 3884,
      "çĽ¸åħ³çļĦ": 3885,
      "Event": 3886,
      "æ±ģ": 3887,
      "å¼łä¸ī": 3888,
      "Ġnumber": 3889,
      "çŃ¾": 3890,
      "åĮ»çĸĹä¿Ŀåģ¥": 3891,
      "éģį": 3892,
      "æķ£æŃ¥": 3893,
      "Ġconfig": 3894,
      "çłĶ": 3895,
      "ä¹Łä¼ļ": 3896,
      "Ġent": 3897,
      "ateg": 3898,
      "ible": 3899,
      "ç»ĺ": 3900,
      "Ġnode": 3901,
      "google": 3902,
      "å®«": 3903,
      "ç¼©": 3904,
      "Ġacc": 3905,
      "è¾¾åĪ°": 3906,
      "æĢ¥": 3907,
      "ç»ĵè®º": 3908,
      "æ©ĻåŃĲ": 3909,
      "Ċĉĉĉĉĉĉĉĉ": 3910,
      "ified": 3911,
      "æİ¨å¹¿": 3912,
      "æİ¥åıĹ": 3913,
      "Ġob": 3914,
      "æĬĢæľ¯çļĦ": 3915,
      "éĻĦ": 3916,
      "eturn": 3917,
      "ayer": 3918,
      "è¿Ļå®¶": 3919,
      "ä¼ĺåĬ¿": 3920,
      "åºŁ": 3921,
      "ature": 3922,
      "éĽħ": 3923,
      "itial": 3924,
      "çļĦçĭ": 3925,
      "Ġone": 3926,
      "çĩĥ": 3927,
      "package": 3928,
      "åĽŀçŃĶéĹ®é¢ĺ": 3929,
      "Ġnum": 3930,
      "æĿŁ": 3931,
      "åĨł": 3932,
      "ĠâĢľ": 3933,
      "ä¸įçŁ¥éģĵ": 3934,
      "iven": 3935,
      "éĤ£éĩĮ": 3936,
      "æĵįä½ľ": 3937,
      "èĪ¹": 3938,
      "ä»£çłģ": 3939,
      "verride": 3940,
      "åĶ±": 3941,
      "èĳĹåĲįçļĦ": 3942,
      "ely": 3943,
      "Ġjson": 3944,
      "urch": 3945,
      "result": 3946,
      "å®ļæľŁ": 3947,
      "ĠEn": 3948,
      "èĢĮä¸įæĺ¯": 3949,
      "æľªæĿ¥çļĦ": 3950,
      "å¦Ī": 3951,
      "è¿Ļç¯ĩ": 3952,
      "éĵħ": 3953,
      "æ·±åĪ»": 3954,
      "è¶³çĲĥ": 3955,
      "æģ¶": 3956,
      "æĸĹ": 3957,
      "tx": 3958,
      "SON": 3959,
      "éĢĻ": 3960,
      "è¿ŀæİ¥": 3961,
      "Ġcre": 3962,
      "ç»ĵåĲĪ": 3963,
      "åĪº": 3964,
      "error": 3965,
      "çĥ§": 3966,
      "ä¸Ģå¤©": 3967,
      "æĽ¿æį¢": 3968,
      "åıĳå¸ĥ": 3969,
      "æģĲ": 3970,
      "åı¯ä»¥ä½¿çĶ¨": 3971,
      "åŃ¦ä¹łåĴĮ": 3972,
      "ugg": 3973,
      "èĩªè¡Į": 3974,
      "åĮĸåŃ¦": 3975,
      "čĊĉ": 3976,
      "è®ºæĸĩ": 3977,
      "æĸ¹ä¾¿": 3978,
      "èĭı": 3979,
      "èĩ³å°ĳ": 3980,
      "ä½Ľ": 3981,
      "èĥ½éĩı": 3982,
      "æĶ»": 3983,
      "è¡¨éĿ¢": 3984,
      "Ġprint": 3985,
      "è²": 3986,
      "========": 3987,
      "¡èĲ": 3988,
      "åĪĨåĪ«": 3989,
      "çĭ¬çī¹çļĦ": 3990,
      "Ġbut": 3991,
      "æĤ¦": 3992,
      "dir": 3993,
      "istrib": 3994,
      "core": 3995,
      "çĽĽ": 3996,
      "åıĳæĮ¥": 3997,
      "åĿļæĮģ": 3998,
      "########": 3999,
      "çİī": 4000,
      "ç¯®": 4001,
      "è§Ĥä¼Ĺ": 4002,
      "èĽĭçĻ½": 4003,
      "reak": 4004,
      "trib": 4005,
      "è¯ļ": 4006,
      "æ°Ķæ¸©": 4007,
      "çļĦæĸ°": 4008,
      "13": 4009,
      "db": 4010,
      "ocument": 4011,
      "ä¸ļåĬ¡": 4012,
      "iled": 4013,
      "ä¿Ŀè¯ģ": 4014,
      "è½»æĿ¾": 4015,
      "å°¾": 4016,
      "åĵ¥": 4017,
      "udy": 4018,
      "oin": 4019,
      "æ£®æŀĹ": 4020,
      "åĩī": 4021,
      "æŃī": 4022,
      "éľĩ": 4023,
      "oolean": 4024,
      "ï¼īï¼Į": 4025,
      "å®īæİĴ": 4026,
      "olumn": 4027,
      "Pl": 4028,
      "ç»©": 4029,
      "åģ¥åº·çļĦ": 4030,
      "Len": 4031,
      "æĶ¹åĨĻ": 4032,
      "å¹ħ": 4033,
      "çļĦäºĭæĥħ": 4034,
      "Ġpar": 4035,
      "èĤĮ": 4036,
      "ful": 4037,
      "é¾Ħ": 4038,
      "opt": 4039,
      "è¡¨è¾¾äºĨ": 4040,
      "æĹ¨åľ¨": 4041,
      "æµģè¡Į": 4042,
      "25": 4043,
      "ization": 4044,
      "å°į": 4045,
      "çĽ¸äºĴ": 4046,
      "æ¨¡æĭŁ": 4047,
      "å·´é»İ": 4048,
      "åı¯ä»¥è¢«": 4049,
      "æ¯ıä¸ªæľĭåıĭ": 4050,
      "éľĢè¦ģæ³¨æĦı": 4051,
      "input": 4052,
      "ä¸¤ä¸ªåı¥åŃĲ": 4053,
      "group": 4054,
      "pli": 4055,
      "Ġ8": 4056,
      "çļĦæĢĿ": 4057,
      "éĽ¶": 4058,
      "Ġfe": 4059,
      "å¤©ç©º": 4060,
      "éģµ": 4061,
      "çĽ¸å¯¹": 4062,
      "çİ¯å¢ĥä¿ĿæĬ¤": 4063,
      "çļĦç³": 4064,
      "èĤ¥": 4065,
      "uff": 4066,
      "čĊĠĠĠĠĠĠĠ": 4067,
      "çľŁæŃ£": 4068,
      "åĴĮæĸĩåĮĸ": 4069,
      "é¥¼": 4070,
      "è¡£æľį": 4071,
      "eters": 4072,
      "oft": 4073,
      "max": 4074,
      "Ġpath": 4075,
      "peration": 4076,
      "èĭ¦": 4077,
      "ference": 4078,
      "çĶļ": 4079,
      "éĵħç¬Ķ": 4080,
      "ç»Ļä½ł": 4081,
      "åĪĨåĪ°": 4082,
      "éĤ£äºĽ": 4083,
      "æ²ŁéĢļ": 4084,
      "éĢ»": 4085,
      "å¯»æ±Ĥ": 4086,
      "Ġä½ł": 4087,
      "è°±": 4088,
      "æĢĿæĥ³": 4089,
      "æİī": 4090,
      "çĤĴ": 4091,
      "åıªæĺ¯": 4092,
      "eter": 4093,
      "ä¸Ģä¸ªäºº": 4094,
      "æľīæīĢ": 4095,
      "ä¸ŃæľĢ": 4096,
      "Override": 4097,
      "æ¤Ĵ": 4098,
      "++": 4099,
      "ç¨ĭåº¦": 4100,
      "åľ¨ä¸Ģèµ·": 4101,
      "çļĦæıı": 4102,
      "éĿ¢å¯¹": 4103,
      "æ¶¦": 4104,
      "As": 4105,
      "æ¹¿": 4106,
      "åı¯æĮģç»Ńåıĳå±ķ": 4107,
      "é«ĺåħ´": 4108,
      "ote": 4109,
      "frame": 4110,
      "å®¶äºº": 4111,
      "åĬ¨è¯į": 4112,
      "è¿Ľåħ¥": 4113,
      "æ¦Ĥå¿µ": 4114,
      "æĺİäºĨ": 4115,
      "æłĩåĩĨ": 4116,
      "åĿ¦": 4117,
      "æĺ¾ç¤º": 4118,
      "çļĦçģ": 4119,
      "Ġthey": 4120,
      "çļĦçĪ±": 4121,
      "ç¿°": 4122,
      "Ġ12": 4123,
      "æľĢä½³": 4124,
      "å¼ĥ": 4125,
      "åĳ¨åĽ´": 4126,
      "çĿ¡çľł": 4127,
      "ç»ıè¿ĩ": 4128,
      "lement": 4129,
      "Ġ7": 4130,
      "åĢ¾": 4131,
      "cond": 4132,
      "ugh": 4133,
      "å¯Ĵ": 4134,
      "ä¸ĭåĪĹ": 4135,
      "ĠAr": 4136,
      "SS": 4137,
      "æıĲä¾Ľä¸ĢäºĽ": 4138,
      "èĭ±åĽ½": 4139,
      "ä¸Ģåı¥è¯Ŀ": 4140,
      "çļĦæ¦Ĥ": 4141,
      "å¾Ĺåĩº": 4142,
      "ploy": 4143,
      "05": 4144,
      "çıį": 4145,
      "æĸ°éĹ»æĬ¥éģĵ": 4146,
      "xc": 4147,
      "å¨±ä¹Ĳ": 4148,
      "æ³¨éĩį": 4149,
      "é¢Ħéĺ²": 4150,
      "ä¸Ģç»Ħ": 4151,
      "å£°éŁ³": 4152,
      "Ġcould": 4153,
      "çļĦæĻº": 4154,
      "å©ļ": 4155,
      "å¥ı": 4156,
      "åľ£": 4157,
      "ĠAs": 4158,
      "èĥģ": 4159,
      "é¥®æĸĻ": 4160,
      "num": 4161,
      "äººç±»çļĦ": 4162,
      "Ġrem": 4163,
      "å¼ĢæĶ¾": 4164,
      "æĹ¶ä»£": 4165,
      "ç§°ä¸º": 4166,
      "atter": 4167,
      "ypes": 4168,
      "Ġ_,": 4169,
      "Run": 4170,
      "è§ĦåĪĴ": 4171,
      "Ġreturns": 4172,
      "ĠY": 4173,
      "éĢ»è¾ĳ": 4174,
      "Ġcase": 4175,
      "Ġag": 4176,
      "äºĨä¸ĢäºĽ": 4177,
      "Ġfunction": 4178,
      "ä¹¦ç±į": 4179,
      "ping": 4180,
      "ĠIt": 4181,
      "));": 4182,
      "éªĳ": 4183,
      "çĲĨè®º": 4184,
      "ĊĠĠĠĠĠĠĠĠĠ": 4185,
      "åĩºèī²": 4186,
      "çľŁçļĦ": 4187,
      "åīįå¾Ģ": 4188,
      "åĵº": 4189,
      "èĽĭç³ķ": 4190,
      "Ġtra": 4191,
      "æ¶²": 4192,
      "ä¸Ĭæµ·": 4193,
      "ms": 4194,
      "pan": 4195,
      "ä¼ĺç§Ģ": 4196,
      "version": 4197,
      "çĥŁ": 4198,
      "Of": 4199,
      "Ptr": 4200,
      "view": 4201,
      "default": 4202,
      "çº¦ç¿°": 4203,
      "åĪĹåĩº": 4204,
      "åĮ»çĸĹé¢ĨåŁŁ": 4205,
      "ç²¾ç¥ŀ": 4206,
      "Ġstart": 4207,
      "xf": 4208,
      "ptional": 4209,
      "å¨ģèĥģ": 4210,
      "Ġprovide": 4211,
      "æİĮæı¡": 4212,
      "context": 4213,
      "Ġcall": 4214,
      "çļĦæĢ»": 4215,
      "æŃ§è§Ĩ": 4216,
      "éķ¿åº¦": 4217,
      "æ¼Ķåĳĺ": 4218,
      "è´¥": 4219,
      "çī©ä½ĵ": 4220,
      "æĮĩåĩº": 4221,
      "çĽ®çļĦåľ°": 4222,
      "ä½łéľĢè¦ģ": 4223,
      "Ġref": 4224,
      "Ġrec": 4225,
      "è©": 4226,
      "çıł": 4227,
      "åħ±æľī": 4228,
      "general": 4229,
      "èĩªåĬ¨åĮĸ": 4230,
      "äº¡": 4231,
      "æİ¨çĲĨ": 4232,
      "å®ľ": 4233,
      "è·ĳæŃ¥": 4234,
      "çļĦæ´»åĬ¨": 4235,
      "çµ": 4236,
      "lose": 4237,
      "ç§¯æŀģçļĦ": 4238,
      "èī¯å¥½çļĦ": 4239,
      "è§¦": 4240,
      "èĻļæĭŁ": 4241,
      "çĶŁåŃĺ": 4242,
      "æ³¡": 4243,
      "req": 4244,
      "è¯¾ç¨ĭ": 4245,
      "Ġrel": 4246,
      "ç§ĳå¹»": 4247,
      "auth": 4248,
      "æĸ°é²ľ": 4249,
      "ĠUn": 4250,
      "ä»ĸåľ¨": 4251,
      "èĤ¯": 4252,
      "Call": 4253,
      "Ġinto": 4254,
      "çļĦæĥ³": 4255,
      "åŃ¤çĭ¬": 4256,
      "ĠList": 4257,
      "å¹´çļĦ": 4258,
      "è¿Ľè¡ĮåĪĨç±»": 4259,
      "æĸĩåĮĸåĴĮ": 4260,
      "å¤§å®¶": 4261,
      "æµ·æ»©": 4262,
      "æĪĳè®¤ä¸º": 4263,
      "loc": 4264,
      "æĺ¯ä¸Ģéĥ¨": 4265,
      "Ġ&&": 4266,
      "christ": 4267,
      "Ġeff": 4268,
      "è´Ŀ": 4269,
      "éĢĤéĩı": 4270,
      "æĪĳåľ¨": 4271,
      "çļĦæĦıæĢĿ": 4272,
      "output": 4273,
      "å¹³çŃī": 4274,
      "æĬ½åıĸ": 4275,
      "æīĢæľīçļĦ": 4276,
      "Ġgener": 4277,
      "stack": 4278,
      "è¯º": 4279,
      "TION": 4280,
      "apt": 4281,
      "éĹŃ": 4282,
      "åĵªéĩĮ": 4283,
      "Ġthese": 4284,
      "æĶ¾åľ¨": 4285,
      "æµģçķħ": 4286,
      "uggest": 4287,
      "Ġover": 4288,
      "idd": 4289,
      "Ġclient": 4290,
      "åīĤ": 4291,
      "church": 4292,
      "ĠDe": 4293,
      "åı¤è¯Ĺ": 4294,
      "nection": 4295,
      "åĲĦä¸ª": 4296,
      "End": 4297,
      "ines": 4298,
      "æķ°æį®éĽĨ": 4299,
      "æ³°": 4300,
      "èĦ±": 4301,
      "esus": 4302,
      "Le": 4303,
      "Ġalso": 4304,
      "äººçĶŁ": 4305,
      "çİĽä¸½": 4306,
      "çĤİ": 4307,
      "è½½": 4308,
      "æľµ": 4309,
      "äºĴåĬ¨": 4310,
      "Ġvalid": 4311,
      "Ġind": 4312,
      "å·¥ä¸ļ": 4313,
      "è½®": 4314,
      "å®Ĺ": 4315,
      "Ġend": 4316,
      "Ġos": 4317,
      "False": 4318,
      "ä½ĵèĤ²": 4319,
      "aders": 4320,
      "æ¾": 4321,
      "å¤ªéĺ³ç³»": 4322,
      "jesus": 4323,
      "éĻĪè¿°": 4324,
      "åĩĢ": 4325,
      "Ġdif": 4326,
      "è§ĦåĪĻ": 4327,
      "erence": 4328,
      "EN": 4329,
      "UT": 4330,
      "state": 4331,
      "æľīåĵªäºĽ": 4332,
      "çļĦçŃĶæ¡Ī": 4333,
      "Text": 4334,
      "study": 4335,
      "å¦Ļ": 4336,
      "Ġra": 4337,
      "è¡¥": 4338,
      "åĪĨéħį": 4339,
      "çĹħæ¯Ĵ": 4340,
      "Server": 4341,
      "ä¾Ĩ": 4342,
      "æ··åĲĪ": 4343,
      "Ġ->": 4344,
      "å´": 4345,
      "åĵºä¹³": 4346,
      "åĨĻä¸Ģç¯ĩ": 4347,
      "éĩįçĤ¹": 4348,
      "å¥³åŃ©": 4349,
      "åįģåĪĨ": 4350,
      "æ°§åĮĸ": 4351,
      "èĵĿèī²": 4352,
      "ä¸ĬéĿ¢": 4353,
      "çļĦçŁŃ": 4354,
      "igh": 4355,
      "ains": 4356,
      "Ġoffset": 4357,
      "çĶļèĩ³": 4358,
      "orage": 4359,
      "conference": 4360,
      "ĠPro": 4361,
      "è¾£": 4362,
      "let": 4363,
      "loud": 4364,
      "24": 4365,
      "TypeName": 4366,
      "èº«ä½ĵåģ¥åº·": 4367,
      "ãģ": 4368,
      "èªī": 4369,
      "request": 4370,
      "Equals": 4371,
      "mp": 4372,
      "åģĩè®¾": 4373,
      "åĪĨä¸º": 4374,
      "é«ĺåº¦": 4375,
      "ofjesus": 4376,
      "churchofjesus": 4377,
      "churchofjesuschrist": 4378,
      "æľŁéĹ´": 4379,
      "ç§įæĹı": 4380,
      "pc": 4381,
      "ä¸Ńæĸĩ": 4382,
      "åħ¶ä¸ŃçļĦ": 4383,
      "ä¹ı": 4384,
      "Ġmax": 4385,
      "eb": 4386,
      "ĠEx": 4387,
      "ä¹Łæľī": 4388,
      "éĥģ": 4389,
      "Ġmod": 4390,
      "äº¤æĺĵ": 4391,
      "place": 4392,
      "Ġresource": 4393,
      "ä¸»äºº": 4394,
      "è½¬æį¢": 4395,
      "ç¥ŀç»ıç½ĳç»ľ": 4396,
      "ä½¿åħ¶æĽ´": 4397,
      "èĩªè¡Įè½¦": 4398,
      "AT": 4399,
      "Ġz": 4400,
      "èĩªåĬ¨é©¾é©¶": 4401,
      "çļĦé£İéĻ©": 4402,
      "åį·": 4403,
      "æ¡Į": 4404,
      "éĥ½ä¼ļ": 4405,
      "æĥħåĨµä¸ĭ": 4406,
      "instance": 4407,
      "æĢĢ": 4408,
      "ays": 4409,
      "ish": 4410,
      "æĭį": 4411,
      "å»¶": 4412,
      "é¢Ĩå¯¼": 4413,
      "æĩĤ": 4414,
      "æ¸©æļĸ": 4415,
      "ä¼ĺçĤ¹": 4416,
      "Ġmin": 4417,
      "Sh": 4418,
      "åŃ¸": 4419,
      "è¿Ļæ¬¾": 4420,
      "Item": 4421,
      "éĿ¢åĮħ": 4422,
      "çļĦæĢ§": 4423,
      "count": 4424,
      "RO": 4425,
      "æĺ¯ä¸Ģä½į": 4426,
      "éŃĶæ³ķ": 4427,
      "Par": 4428,
      "åĬĽçļĦ": 4429,
      "plication": 4430,
      "è§Ĩé¢ĳ": 4431,
      "æĬ±æŃī": 4432,
      "çļĦæĻ¯": 4433,
      "è¿¹": 4434,
      "çĶ³": 4435,
      "æ¬£èµı": 4436,
      "åĨĻä¸Ģä¸ª": 4437,
      "Ġtry": 4438,
      "ç®ĢåįķçļĦ": 4439,
      "Ġstate": 4440,
      "æ¸ħæ´ģ": 4441,
      "Ġneed": 4442,
      "çĬ¬": 4443,
      "wargs": 4444,
      "ision": 4445,
      "æĹ¶æľŁ": 4446,
      "æĹ¶éĹ´åĴĮ": 4447,
      "Ġits": 4448,
      "ner": 4449,
      "04": 4450,
      "Ġorig": 4451,
      "Reg": 4452,
      "Ġsent": 4453,
      "ç®Ģè¦ģ": 4454,
      "èķī": 4455,
      "round": 4456,
      "izer": 4457,
      "èĢ³": 4458,
      "angu": 4459,
      "é¸¡èĽĭ": 4460,
      "Ġexpected": 4461,
      "iter": 4462,
      "æĹ§": 4463,
      "é¡¶": 4464,
      "AtA": 4465,
      "çļĦæīĭ": 4466,
      "roll": 4467,
      "Ġonly": 4468,
      "DI": 4469,
      "å®ĥæĺ¯": 4470,
      "Spec": 4471,
      "æķı": 4472,
      "æĪĲè¯Ń": 4473,
      "serv": 4474,
      "viron": 4475,
      "Ġcode": 4476,
      "ĠTrue": 4477,
      "é»ĺ": 4478,
      "æĪĲä¸ºäºĨ": 4479,
      "èľľ": 4480,
      "amespace": 4481,
      "åºĨ": 4482,
      "Ġdet": 4483,
      "çļĦæııè¿°": 4484,
      "åħ«": 4485,
      "çļĦæİ¨": 4486,
      "å®¡": 4487,
      "åħ³éĶ®ä¿¡æģ¯": 4488,
      "éķĩ": 4489,
      "å¹¶æıĲä¾Ľ": 4490,
      "æķ¬": 4491,
      "ings": 4492,
      "è¿ª": 4493,
      "å°¤åħ¶": 4494,
      "å®¾": 4495,
      "Ġbet": 4496,
      "è¯ŃéŁ³è¯ĨåĪ«": 4497,
      "åľ¨ä¸Ģä¸ª": 4498,
      "Ġsign": 4499,
      "Ġuint": 4500,
      "æŁĲä¸ª": 4501,
      "è®¤è¯Ĩ": 4502,
      "interface": 4503,
      "éĺ¶": 4504,
      "Inter": 4505,
      "é¦Ļèķī": 4506,
      "ower": 4507,
      "æıĲä¾ĽçļĦ": 4508,
      "æıĲåıĸåĩº": 4509,
      "æĪ¿éĹ´": 4510,
      "éĽ·": 4511,
      "ĠTypeCommon": 4512,
      "ç§»åĬ¨": 4513,
      "åĨįçĶŁ": 4514,
      "Is": 4515,
      "ret": 4516,
      "åĮºåĿĹ": 4517,
      "é¼ł": 4518,
      "Ġspecific": 4519,
      "çļĦåİŁåĽł": 4520,
      "ä¸Ģæ¬¾": 4521,
      "è¸ª": 4522,
      "ĠFalse": 4523,
      "me": 4524,
      "ç¾İä¸½çļĦ": 4525,
      "çĪ±å¥½": 4526,
      "Ġnp": 4527,
      "Ġsuch": 4528,
      "å¹´é¾Ħ": 4529,
      "å®ģ": 4530,
      "Ġoutput": 4531,
      "Valid": 4532,
      "ä¼ĳæģ¯": 4533,
      "éļıæĹ¶": 4534,
      "éº¼": 4535,
      "åĪĽå»ºä¸Ģä¸ª": 4536,
      "èĳ±": 4537,
      "çĭ¬ç«ĭ": 4538,
      "åı¤ä»£": 4539,
      "éª¨": 4540,
      "ä¹¡": 4541,
      "åĨ¥": 4542,
      "'t": 4543,
      "éĻ¤äºĨ": 4544,
      "æĸĩæľ¬åĨħå®¹": 4545,
      "èİĵ": 4546,
      "çļĦèĥ½åĬĽ": 4547,
      "èĭĹ": 4548,
      "å¸Ŀ": 4549,
      "æĢ§èĥ½": 4550,
      "ular": 4551,
      "è¯Ńè¨Ģæ¨¡åŀĭ": 4552,
      "uted": 4553,
      "ç¾İå¥½çļĦ": 4554,
      "çļĦæĭ": 4555,
      "ä¹ĭåĲİ": 4556,
      "çļĦæĮĳæĪĺ": 4557,
      "åĳ¨æľ«": 4558,
      "Ġinformation": 4559,
      "Read": 4560,
      "çĴ": 4561,
      "éĢĴ": 4562,
      "æ»¡æĦı": 4563,
      "å¤§æ°Ķ": 4564,
      "cur": 4565,
      "çŁŃæĸĩ": 4566,
      "å®ĥåı¯ä»¥": 4567,
      "aint": 4568,
      "è§Ī": 4569,
      "æĺŁæľŁ": 4570,
      "åłĤ": 4571,
      "å£®": 4572,
      "èĢĹ": 4573,
      "create": 4574,
      "çļĦç©": 4575,
      "struct": 4576,
      "ĊĠĠĠĠĠĠĠĠĠĠĠĠĠĠĠĠĠĠĠĠĠĠĠĠĠĠĠ": 4577,
      "til": 4578,
      "æī¾åĩº": 4579,
      "æĸĩæľ¬ä¸ŃçļĦ": 4580,
      "Ġprocess": 4581,
      "box": 4582,
      "åĴ¨": 4583,
      "Ġauth": 4584,
      "Ġcomm": 4585,
      "æīĺ": 4586,
      "Ġinstance": 4587,
      "AC": 4588,
      "çĶŁéķ¿": 4589,
      "çļĦçİ¯å¢ĥ": 4590,
      "LI": 4591,
      "æľĢå¥½": 4592,
      "æĺ¯ä¸ŃåĽ½": 4593,
      "æ®Ĭ": 4594,
      "çľĭèµ·æĿ¥": 4595,
      "çļĦç¬¬": 4596,
      "60": 4597,
      "Ġeach": 4598,
      "æĪĳæĹłæ³ķ": 4599,
      "éĢĢ": 4600,
      "å½¼": 4601,
      "æĹ¢": 4602,
      "å¼¹": 4603,
      "è¿Ļæľ¬ä¹¦": 4604,
      "ãĢĭãĢģ": 4605,
      "æĿĢ": 4606,
      "rc": 4607,
      "å°ıåŃ¦": 4608,
      "å«": 4609,
      "åĢŁ": 4610,
      "æĺĵäºİ": 4611,
      "çļĦæķĪ": 4612,
      "äºĨä¸Ģç§į": 4613,
      "ches": 4614,
      "é¢Ĺç³ĸæŀľ": 4615,
      "esc": 4616,
      "æħ§": 4617,
      "å®ŀæĸ½": 4618,
      "ermission": 4619,
      "Ġinterface": 4620,
      "ç»´æĬ¤": 4621,
      "params": 4622,
      "æĭĮ": 4623,
      "ait": 4624,
      "åĴ¨è¯¢": 4625,
      "åĨĴéĻ©": 4626,
      "åĵºä¹³åĬ¨çī©": 4627,
      "çĶ²": 4628,
      "å±ķçİ°": 4629,
      "ild": 4630,
      "å®Įæķ´": 4631,
      "uble": 4632,
      "å¾ĹåĪ°äºĨ": 4633,
      "Ġgiven": 4634,
      "ç¿»è¯ĳæĪĲ": 4635,
      "åįļçī©": 4636,
      "æĸĩç«łä¸ŃæıĲåıĸåĩº": 4637,
      "å¼ºè°ĥäºĨ": 4638,
      "çģ¾å®³": 4639,
      "äº¿": 4640,
      "å¯¿": 4641,
      "çļĦç²": 4642,
      "ĠAPI": 4643,
      "PT": 4644,
      "ython": 4645,
      "æĸĩç«łä¸ŃæıĲåıĸ": 4646,
      "sing": 4647,
      "æ¦": 4648,
      "çĪ¶": 4649,
      "æĹĭ": 4650,
      "çĽ¸åºĶ": 4651,
      "çĽ®çļĦ": 4652,
      "Pos": 4653,
      "ules": 4654,
      "ĠFor": 4655,
      "ats": 4656,
      "âĢĶâĢĶ": 4657,
      "éķľ": 4658,
      "çĻĮ": 4659,
      "åģ¥åº·é¥®é£Ł": 4660,
      "start": 4661,
      "etwork": 4662,
      "ªæĺİ": 4663,
      "å·¦åı³": 4664,
      "erson": 4665,
      "çĶŁæ´»æĸ¹å¼ı": 4666,
      "ä¸ĵæ³¨": 4667,
      "annel": 4668,
      "äºĨè®¸å¤ļ": 4669,
      "æĢĿç»´": 4670,
      "TIME": 4671,
      "è§Ĥå¯Ł": 4672,
      "æ¶Īè´¹èĢħ": 4673,
      "90": 4674,
      "\"),": 4675,
      "Ġ\"\"": 4676,
      "Null": 4677,
      "Ġwould": 4678,
      "æĦŁåıĹåĪ°": 4679,
      "æĤ¨éľĢè¦ģ": 4680,
      "è§£åĨ³éĹ®é¢ĺ": 4681,
      "åıĬæĹ¶": 4682,
      "èļ": 4683,
      "ç»ķ": 4684,
      "Ġgroup": 4685,
      "èĤª": 4686,
      "å¼ºçĥĪ": 4687,
      "æ¶Īæŀģ": 4688,
      "è¡¨æ¼Ķ": 4689,
      "åĮĢ": 4690,
      "çĶµåŃĲéĤ®ä»¶": 4691,
      "èĦĤèĤª": 4692,
      "Ġ__": 4693,
      "èĽĭçĻ½è´¨": 4694,
      "èĦı": 4695,
      "èĥ½åĲ¦": 4696,
      "éķ¿æľŁ": 4697,
      "éº»": 4698,
      "ç¾İåħĥ": 4699,
      "åĦ¿ç«¥": 4700,
      "\"\"\"": 4701,
      "ä¸ĥ": 4702,
      "è¿ħ": 4703,
      "Ġso": 4704,
      "èī¾": 4705,
      "tings": 4706,
      "Port": 4707,
      "åĳĪçİ°": 4708,
      "cale": 4709,
      "ä¼Ĭ": 4710,
      "Ġinclude": 4711,
      "apache": 4712,
      "å®¤æ°Ķä½ĵ": 4713,
      "æľĢå¥½çļĦ": 4714,
      "ç¡¬": 4715,
      "plate": 4716,
      "è°ĵ": 4717,
      "anguage": 4718,
      "æİ¥ä¸ĭæĿ¥": 4719,
      "è³": 4720,
      "æľĢæĸ°": 4721,
      "check": 4722,
      "ä¼ĳéĹ²": 4723,
      "ä½łå¥½": 4724,
      "Loc": 4725,
      "Ġcal": 4726,
      "å¹¶æ²¡æľī": 4727,
      "ä¼łæĴŃ": 4728,
      "item": 4729,
      "ä»Ģéº¼": 4730,
      "ten": 4731,
      "itor": 4732,
      "Ġinst": 4733,
      "å½Ĵç±»": 4734,
      "ä¸Ĭä¸ĭæĸĩ": 4735,
      "é½": 4736,
      "åħ·ä½ĵçļĦ": 4737,
      "èģĬå¤©": 4738,
      "{\"": 4739,
      "æ³ķåĽ½": 4740,
      "ï¼ŁâĢĿ": 4741,
      "ä¹Ŀ": 4742,
      "Form": 4743,
      "ä¸°å¯ĮçļĦ": 4744,
      "å¿ĥæĥħ": 4745,
      "çļĦæ¯Ķ": 4746,
      "åĵģè´¨": 4747,
      "åĮºåŁŁ": 4748,
      "right": 4749,
      "Ġ{}": 4750,
      "éĻĨ": 4751,
      "Ġallow": 4752,
      "types": 4753,
      "API": 4754,
      "ç§įç±»": 4755,
      "è¹": 4756,
      "è¿ĩåº¦": 4757,
      "éĩįå¤į": 4758,
      "æ¯ıä¸ªäººéĥ½": 4759,
      "çļĦæīĢ": 4760,
      "è¾ħ": 4761,
      "çĽ´åĪ°": 4762,
      "æŃ¦": 4763,
      "order": 4764,
      "çªĹ": 4765,
      "ious": 4766,
      "object": 4767,
      "ĠTest": 4768,
      "åħħåĪĨ": 4769,
      "æĺİæĺ¾": 4770,
      "åĮºåĿĹéĵ¾": 4771,
      "Model": 4772,
      "ics": 4773,
      "testing": 4774,
      "andom": 4775,
      "base": 4776,
      "Ġdistrib": 4777,
      "æ´Ľ": 4778,
      "ĠSet": 4779,
      "çļĦä¸»è¦ģè§ĤçĤ¹": 4780,
      "æĿ¥æºĲ": 4781,
      "è®²è¿°äºĨ": 4782,
      "å¡ŀ": 4783,
      "velo": 4784,
      "df": 4785,
      "anc": 4786,
      "ĠCon": 4787,
      "æīĢéľĢ": 4788,
      "çļĦç½": 4789,
      "èº«å¿ĥ": 4790,
      "ä½ĨæĪĳ": 4791,
      "Ġindex": 4792,
      "NA": 4793,
      "äºĭçī©": 4794,
      "åŃĲçļĦ": 4795,
      "åıĬåħ¶": 4796,
      "åķĨåĵģæĸĩæ¡Ī": 4797,
      "çľĭçĶµå½±": 4798,
      "é»ĳæ´ŀ": 4799,
      "Check": 4800,
      "éĵ¶è¡Į": 4801,
      "åĴĮç¤¾ä¼ļ": 4802,
      "atab": 4803,
      "ause": 4804,
      "Ġshift": 4805,
      "éĴ¢": 4806,
      "HTTP": 4807,
      "Ġevent": 4808,
      "ĠTypeSize": 4809,
      "æĢ»ç»Ł": 4810,
      "çļĦæķ°éĩı": 4811,
      "Condition": 4812,
      "æģ©": 4813,
      "è®¨è®ºäºĨ": 4814,
      "uc": 4815,
      "ä¹Łå¾Ī": 4816,
      "èī²å½©": 4817,
      "èĻ«": 4818,
      "å¤ļçļĦ": 4819,
      "Ġnon": 4820,
      "æĶ¯ä»ĺ": 4821,
      "ç¶": 4822,
      "æĥł": 4823,
      "Ġ\\": 4824,
      "åĲ¬èµ·æĿ¥": 4825,
      "no": 4826,
      "çĵľ": 4827,
      "olumns": 4828,
      "Label": 4829,
      "çļĦéŁ³ä¹Ĳ": 4830,
      "èĥŀ": 4831,
      "URL": 4832,
      "è¿ĺéľĢè¦ģ": 4833,
      "2020": 4834,
      "æİ¢è®¨äºĨ": 4835,
      "âĢ¦": 4836,
      "å°º": 4837,
      "èį£": 4838,
      "æĬ«": 4839,
      "Ġchar": 4840,
      "æľīè¶£çļĦ": 4841,
      "br": 4842,
      "å¹´æĿ¥": 4843,
      "æ¼Ĥ": 4844,
      "åį±éĻ©": 4845,
      "åľ¨æľªæĿ¥": 4846,
      "è´ŁéĿ¢å½±åĵį": 4847,
      "çľĭçľĭ": 4848,
      "çĸ«æĥħ": 4849,
      "`,": 4850,
      "çĶ¨çļĦ": 4851,
      "åı¹": 4852,
      "çī©ç§į": 4853,
      "ists": 4854,
      "çļĦçŁ¥": 4855,
      "é¦Ī": 4856,
      "å¯¹çİ¯å¢ĥ": 4857,
      "æľĢå¤§": 4858,
      "å·¨å¤§": 4859,
      "ãĢĭãĢģãĢĬ": 4860,
      "èģªæĺİ": 4861,
      "è®¾æĸ½": 4862,
      "Ġthem": 4863,
      "Ġfl": 4864,
      "çļĦçĿ": 4865,
      "å½¢å®¹è¯į": 4866,
      "åįļçī©é¦Ĩ": 4867,
      "ences": 4868,
      "åıĺå¾ĹæĽ´åĬł": 4869,
      "Update": 4870,
      "Ro": 4871,
      "Ġrequests": 4872,
      "èĮĦ": 4873,
      "èī¯å¥½": 4874,
      "å·Ŀ": 4875,
      "çļĦæķĻ": 4876,
      "äºĪ": 4877,
      "itle": 4878,
      "çļĦéĢīæĭ©": 4879,
      "æĶ¶éĽĨ": 4880,
      "çļĦç³ĸ": 4881,
      "éĿŀå¸¸å¥½": 4882,
      "ãĢĭãĢĤ": 4883,
      "æį·": 4884,
      "æĻºèĥ½å®¶å±ħ": 4885,
      "é£ŁæĿĲ": 4886,
      "çĸ²": 4887,
      "èĩ³åħ³": 4888,
      "ä¸Ģæľ¬": 4889,
      "Ġsc": 4890,
      "æĺŁçĲĥ": 4891,
      "æĳĦåħ¥": 4892,
      "æĦīå¿«": 4893,
      "å®£ä¼ł": 4894,
      "æĭ¼åĨĻ": 4895,
      "è®¾ç½®": 4896,
      "éļ¾ä»¥": 4897,
      "çī¹æ®Ĭ": 4898,
      "Ġcopy": 4899,
      "å¡«": 4900,
      "init": 4901,
      "çªģçĦ¶": 4902,
      "ä»ĸäºº": 4903,
      "çļĦçĹ": 4904,
      "åŁºåĽł": 4905,
      "è¯Ńæ³ķéĶĻè¯¯": 4906,
      "çļĦç¼": 4907,
      "åĨ¥æĥ³": 4908,
      "çļĦç¥": 4909,
      "åĲī": 4910,
      "å¹ķ": 4911,
      "éĹª": 4912,
      "æľīæķĪåľ°": 4913,
      "AD": 4914,
      "ĠlocalVar": 4915,
      "åĵ²": 4916,
      "ç¬¬ä¸ī": 4917,
      "å±ĭ": 4918,
      "äººæ°ĳ": 4919,
      "çº¯": 4920,
      "ï¼ļãĢĬ": 4921,
      "æī¹": 4922,
      "æĭĽ": 4923,
      "çļĦæ±": 4924,
      "æİ¨åĩº": 4925,
      "ĠæıĲåıĸ": 4926,
      "Token": 4927,
      "ql": 4928,
      "Base": 4929,
      "åĽŀæĶ¶": 4930,
      "Ġsystem": 4931,
      "åĽŀå®¶": 4932,
      "çĵ¶": 4933,
      "Ġserver": 4934,
      "åĨľä¸ļ": 4935,
      "åĪĨæĪĲ": 4936,
      "ä»¥ä¸ĭæ®µèĲ½": 4937,
      "fter": 4938,
      "çĶ°": 4939,
      "mod": 4940,
      "Ġinv": 4941,
      "ĽåĽ´": 4942,
      "çļĦæĥ³æ³ķ": 4943,
      "ft": 4944,
      "teger": 4945,
      "STA": 4946,
      "çĺ": 4947,
      "æ½ľåľ¨": 4948,
      "Ad": 4949,
      "ä½łä»¬": 4950,
      "è§Ħå¾ĭ": 4951,
      "čĊĠĠĠ": 4952,
      "åł¡": 4953,
      "arning": 4954,
      "æķ¢": 4955,
      "åĬ©æīĭ": 4956,
      "çļĦä¸Ģç§į": 4957,
      "çļĦè¡Įä¸º": 4958,
      "æĪĳä»¬å°Ĩ": 4959,
      "ous": 4960,
      "alth": 4961,
      "è¢«è®¤ä¸º": 4962,
      "çļĦæ¸©": 4963,
      "als": 4964,
      "çķª": 4965,
      "ldName": 4966,
      "Ġusing": 4967,
      "Count": 4968,
      "åįĸ": 4969,
      "çĿ£": 4970,
      "èµ¢": 4971,
      "atabase": 4972,
      "Ġcurrent": 4973,
      "ç©¿çĿĢ": 4974,
      "æľīè®¸å¤ļ": 4975,
      "èĦ¸": 4976,
      "ĠFldName": 4977,
      "åĩ½": 4978,
      "</": 4979,
      "çĶŁæĹ¥": 4980,
      "ä¸ĭåįĪ": 4981,
      "å·®å¼Ĥ": 4982,
      "è§Ħæ¨¡": 4983,
      "éĢĤå½ĵçļĦ": 4984,
      "éģĩåĪ°": 4985,
      "GE": 4986,
      "åħ¨éĿ¢": 4987,
      "84": 4988,
      "local": 4989,
      "Ġ(*": 4990,
      "çł´åĿı": 4991,
      "try": 4992,
      "cod": 4993,
      "å¼±": 4994,
      "çļĦçĿ¡": 4995,
      "sc": 4996,
      "ç¬¦åı·": 4997,
      "ĠNew": 4998,
      "åı¯åĨįçĶŁ": 4999,
      "åĲĮä¹īè¯į": 5000,
      "åĶĲ": 5001,
      "Ġexcept": 5002,
      "çļĦçĥŃ": 5003,
      "Handler": 5004,
      "å¦ĤæŃ¤": 5005,
      "èħ¿": 5006,
      "omain": 5007,
      "éĤ£ä¸ª": 5008,
      "Ġempty": 5009,
      "æĪĲå°±": 5010,
      "Ġmessage": 5011,
      "text": 5012,
      "Ġappend": 5013,
      "æľīæ²¡æľī": 5014,
      "çļĦæĶ¯": 5015,
      "æĪ´": 5016,
      "ä»Ķ": 5017,
      "çļĦç¨": 5018,
      "çļĦæīĢæľī": 5019,
      "åĲ«æľī": 5020,
      "ollow": 5021,
      "åĪ°è¾¾": 5022,
      "Ġmust": 5023,
      "å»ºè®¾": 5024,
      "RI": 5025,
      "è®°å¿Ĩ": 5026,
      "åįł": 5027,
      "èµĸ": 5028,
      "åĵģå°Ŀ": 5029,
      "çĶŁç´ł": 5030,
      "Ġopt": 5031,
      "è¿Ļç¯ĩæĸĩç«łä¸Ń": 5032,
      "uring": 5033,
      "az": 5034,
      "åıįé¦Ī": 5035,
      "æĪĳéľĢè¦ģ": 5036,
      "æµ®": 5037,
      "Ġwhile": 5038,
      "entic": 5039,
      "çļĦæłĩé¢ĺ": 5040,
      "å¸¸è§ģçļĦ": 5041,
      "è¿Ŀ": 5042,
      "ç¾İå¥½": 5043,
      "åı¯éĿł": 5044,
      "è¿Ļé¡¹": 5045,
      "åŁĥ": 5046,
      "é£ŀè¡Į": 5047,
      "è¿Ľå±ķ": 5048,
      "åīįæĻ¯": 5049,
      "é¢ĦæĬ¥": 5050,
      "fore": 5051,
      "æł·çļĦ": 5052,
      "çļĦæĦŁè§ī": 5053,
      "(&": 5054,
      "const": 5055,
      "åı¯çĪ±": 5056,
      "çļĦæ¼": 5057,
      "è®¿éĹ®": 5058,
      "xa": 5059,
      "çļĦéľĢæ±Ĥ": 5060,
      "çļĦç¤¾ä¼ļ": 5061,
      "é£İæĻ¯": 5062,
      "æŃĮæĽ²": 5063,
      "æĢ§åĪ«": 5064,
      "å¤§èĩªçĦ¶": 5065,
      "æ¶µ": 5066,
      "æľĥ": 5067,
      "æĪĲåĪĨ": 5068,
      "å°±ä¸ļ": 5069,
      "xd": 5070,
      "éĢĥ": 5071,
      "entity": 5072,
      "Api": 5073,
      "è¿Ķ": 5074,
      "ä»ĸä»¬çļĦå¯¹è¯ĿåĨħå®¹": 5075,
      "Ġversion": 5076,
      "çĶŁæĪĲä¸Ģæ®µ": 5077,
      "Trans": 5078,
      "fmt": 5079,
      "çļĦæ·": 5080,
      "ä¸»è¯Ń": 5081,
      "From": 5082,
      "Ġoriginal": 5083,
      "vironment": 5084,
      "çļĦçĿ¡çľł": 5085,
      "è¯·åĳĬè¯īæĪĳ": 5086,
      "æľīä¸Ģ": 5087,
      "ä»°": 5088,
      "æ·ĭ": 5089,
      "åİŁçĲĨ": 5090,
      "çļĦç©º": 5091,
      "Instance": 5092,
      "Ref": 5093,
      "buf": 5094,
      "ä¸ºæĪĳ": 5095,
      "çļĦæ¸¸": 5096,
      "Ġ},": 5097,
      "tect": 5098,
      "Ġabout": 5099,
      "æįķ": 5100,
      "service": 5101,
      "ç¼ºä¹ı": 5102,
      "Body": 5103,
      "Ġæł¹æį®ç»Ļå®ļçļĦ": 5104,
      "æĶ¾åħ¥": 5105,
      "Ġfirst": 5106,
      "åĬŀåħ¬": 5107,
      "è§Ħå®ļ": 5108,
      "çļĦæŃĮ": 5109,
      "ç»ĦåĲĪ": 5110,
      "oth": 5111,
      "Ġlabel": 5112,
      "å¹³éĿ¢": 5113,
      "ensor": 5114,
      "Auth": 5115,
      "æĪĲåĳĺ": 5116,
      "çļĦåŁİå¸Ĥ": 5117,
      "éŁ©": 5118,
      "åĮĸåĴĮ": 5119,
      "æ·¡": 5120,
      "æĢķ": 5121,
      "çĶµè¯Ŀ": 5122,
      "åŃĺåĤ¨": 5123,
      "Ġfields": 5124,
      "ugin": 5125,
      "tra": 5126,
      "åľ¨äºİ": 5127,
      "æııè¿°äºĨ": 5128,
      "ç»Ĩèĥŀ": 5129,
      "upport": 5130,
      "Ġlike": 5131,
      "ement": 5132,
      "åĵģç§į": 5133,
      "Ġdoes": 5134,
      "Ġsk": 5135,
      "imator": 5136,
      "plit": 5137,
      "Ġco": 5138,
      "å°½åı¯èĥ½": 5139,
      "atal": 5140,
      "ights": 5141,
      "æĮĩå®ļ": 5142,
      "éĿ¢ç§¯": 5143,
      "Ġdb": 5144,
      "æ¡£": 5145,
      "æĹ©é¤Ĳ": 5146,
      "æľŁå¾ħ": 5147,
      "JSON": 5148,
      "åŃ¦ä¼ļ": 5149,
      "abled": 5150,
      "çĿĽ": 5151,
      "æĪĺäºī": 5152,
      "Ġç¼ĸè¾ĳ": 5153,
      "æĻ´": 5154,
      "èĦī": 5155,
      "View": 5156,
      "åıĺæĪĲ": 5157,
      "Ġman": 5158,
      "è´¢åĬ¡": 5159,
      "ention": 5160,
      "æıĲéĨĴ": 5161,
      "å°ıçĭĹ": 5162,
      "No": 5163,
      "åı¯ä»¥è®©": 5164,
      "é»Ħèī²": 5165,
      "ç¾İçļĦ": 5166,
      "é¢Ħç®Ĺ": 5167,
      "iNdEx": 5168,
      "åį«çĶŁ": 5169,
      "AB": 5170,
      "amp": 5171,
      "åī¯": 5172,
      "raph": 5173,
      "èĭ¥": 5174,
      "çī¹èī²": 5175,
      "éĿŀå¸¸éĩįè¦ģ": 5176,
      "less": 5177,
      "è¿Ļé¦ĸ": 5178,
      "40": 5179,
      "¹é¥": 5180,
      "æĦŁåħ´è¶£": 5181,
      "Ġph": 5182,
      "äºĶä¸ª": 5183,
      "ward": 5184,
      "idth": 5185,
      "èİ«": 5186,
      "Send": 5187,
      "ç¯®çĲĥ": 5188,
      "å½Ĵç±»ä¸º": 5189,
      "æĸ¼": 5190,
      "xe": 5191,
      "èĸĦ": 5192,
      "oftware": 5193,
      "Ġraise": 5194,
      "¹é¥ª": 5195,
      "Ġsize": 5196,
      "response": 5197,
      "å½¢è±¡": 5198,
      "ç§ĭå¤©": 5199,
      "çĶŁæĪĲåķĨåĵģæĸĩæ¡Ī": 5200,
      "Match": 5201,
      "æīĢåľ¨": 5202,
      "Ġrequired": 5203,
      "æ¸¯": 5204,
      "ĠTo": 5205,
      "éĥ¨éĹ¨": 5206,
      "æĮĩå¯¼": 5207,
      "ä¾¿åĪ©": 5208,
      "ever": 5209,
      "ification": 5210,
      "Ġret": 5211,
      "search": 5212,
      "çĪĨ": 5213,
      "èĤº": 5214,
      "ç´¯": 5215,
      "åı¦ä¸Ģä¸ª": 5216,
      "å²¸": 5217,
      "And": 5218,
      "ä¹ĭå¤ĸ": 5219,
      "åŃĹæ¯į": 5220,
      "éħĴåºĹ": 5221,
      "éļĶ": 5222,
      "éĽĦ": 5223,
      "That": 5224,
      "çļĦä½¿çĶ¨": 5225,
      "æª": 5226,
      "çľĭåĪ°äºĨ": 5227,
      "çĶ·åŃ©": 5228,
      "ailed": 5229,
      "è¿Ľè¡ĮäºĨ": 5230,
      "Level": 5231,
      "CA": 5232,
      "æ¬§æ´²": 5233,
      "CO": 5234,
      "ank": 5235,
      "indow": 5236,
      "wo": 5237,
      "åºĶè¯¥æĺ¯": 5238,
      "flow": 5239,
      "Ġcons": 5240,
      "Ġav": 5241,
      "é£ŁçĶ¨": 5242,
      "ability": 5243,
      "åŃĲéĩĮ": 5244,
      "é¡µ": 5245,
      "Ġio": 5246,
      "ä¸ĢæĿ¡": 5247,
      "write": 5248,
      "Ġboolean": 5249,
      "Ġwhere": 5250,
      "è£ħé¥°": 5251,
      "pk": 5252,
      "æģĴ": 5253,
      "ä¿ĿæĬ¤çİ¯å¢ĥ": 5254,
      "çļĦå®īåħ¨": 5255,
      "æ£Ģæµĭ": 5256,
      "Ġ>=": 5257,
      "Ġcomple": 5258,
      "```": 5259,
      "Ġread": 5260,
      "æµªè´¹": 5261,
      "çļĦåģ¥åº·": 5262,
      "Ġtem": 5263,
      "åĪĨæŀĲåĴĮ": 5264,
      "çļĦæĮĩ": 5265,
      "çŀ": 5266,
      "è®¡ç®Ĺæľºç§ĳåŃ¦": 5267,
      "æĦīæĤ¦": 5268,
      "éĻĦè¿ĳ": 5269,
      "åĸľå¥½": 5270,
      "çĹĩçĬ¶": 5271,
      "æĤ²": 5272,
      "èľĤ": 5273,
      "æī°": 5274,
      "ä¼¼ä¹İ": 5275,
      "èİ·å¾ĹäºĨ": 5276,
      "Ġthere": 5277,
      "åħħæ»¡äºĨ": 5278,
      "Ġok": 5279,
      "ä¸»è§Ĵ": 5280,
      "ä¼łè¾¾": 5281,
      "åĨįæ¬¡": 5282,
      "å»ºè®®æĤ¨": 5283,
      "ĠInt": 5284,
      "å§ĵ": 5285,
      "è¯¢éĹ®": 5286,
      "æ¸©å®¤æ°Ķä½ĵ": 5287,
      "åĲ¬è¯´": 5288,
      "æĳĺ": 5289,
      "ename": 5290,
      "Image": 5291,
      "ä¸Ģé¡¹": 5292,
      "çļĦä¸»è¦ģåĨħå®¹": 5293,
      "arg": 5294,
      "è¿ĺåī©ä¸ĭ": 5295,
      "çĲĨè§£åĴĮ": 5296,
      "STAMP": 5297,
      "dAtA": 5298,
      "ä¸ªæľĭåıĭ": 5299,
      "ister": 5300,
      "çļĦçŁ¥è¯Ĩ": 5301,
      "utes": 5302,
      "ä¼Ł": 5303,
      "utils": 5304,
      "åĩ½æķ°": 5305,
      "cket": 5306,
      "resource": 5307,
      "Pod": 5308,
      "ĠĊ": 5309,
      "äººåľ¨": 5310,
      "åĲĪéĢĤçļĦ": 5311,
      "xy": 5312,
      "åĴĮæĮĳæĪĺ": 5313,
      "Ġfind": 5314,
      "èĳ¡èĲ": 5315,
      "èĳ¡èĲĦ": 5316,
      "åĴĮä¸į": 5317,
      "è´¦": 5318,
      "è§Ĵåº¦": 5319,
      "Prov": 5320,
      "çºłéĶĻ": 5321,
      "æĺ¯æĪĳ": 5322,
      "Ġsupport": 5323,
      "çļĩ": 5324,
      "():": 5325,
      "Policy": 5326,
      "æĺ¯ä¸ĢåĲį": 5327,
      "Create": 5328,
      "Builder": 5329,
      "åİ¨": 5330,
      "rol": 5331,
      "è¯Ŀé¢ĺ": 5332,
      "çļĦç»ĵæŀľ": 5333,
      "çļĦæĻºèĥ½": 5334,
      "è§£éĩĬä¸Ģä¸ĭ": 5335,
      "åĨħéĥ¨": 5336,
      "æĸ¹éĿ¢çļĦ": 5337,
      "åĨħå¿ĥ": 5338,
      "{},": 5339,
      "åı¯åĨįçĶŁèĥ½æºĲ": 5340,
      "Sub": 5341,
      "link": 5342,
      "åı¯èĥ½å¯¼èĩ´": 5343,
      "ience": 5344,
      "ymb": 5345,
      "å¤§å°ı": 5346,
      "é¡¾å®¢": 5347,
      "èĤ¯å®ļ": 5348,
      "ä¸įå¤ª": 5349,
      "æ²Ļæ»©": 5350,
      "Content": 5351,
      "æķ°åŃ¦é¢ĺ": 5352,
      "ä¸ĢæĿ¯": 5353,
      "bug": 5354,
      "ĠID": 5355,
      "with": 5356,
      "åľ¨è¿Ļ": 5357,
      "åĵ¦": 5358,
      "ging": 5359,
      "æ°ı": 5360,
      "âĢĿãĢģ": 5361,
      "oh": 5362,
      "ä¹Ķ": 5363,
      "åĴĮä¸Ģä¸ª": 5364,
      "ç¨İ": 5365,
      "æµªæ¼«": 5366,
      "ivity": 5367,
      "Expr": 5368,
      "Ġlimit": 5369,
      "ique": 5370,
      "çĸ«èĭĹ": 5371,
      "70": 5372,
      "åĲ¹": 5373,
      "èĬ±åĽŃ": 5374,
      "èĩªä¿¡": 5375,
      "IS": 5376,
      "Ġpass": 5377,
      "æĥ³æ³ķ": 5378,
      "æīĵå¼Ģ": 5379,
      "æ¶īåıĬåĪ°": 5380,
      "rough": 5381,
      "trans": 5382,
      "åĶ¯": 5383,
      "åĴĮæ²»çĸĹ": 5384,
      "Ġmem": 5385,
      "Class": 5386,
      "æĻĤ": 5387,
      "65": 5388,
      "dis": 5389,
      "pulumi": 5390,
      "åı¯ä»¥æıĲé«ĺ": 5391,
      "è¯Ńæ°Ķ": 5392,
      "Stream": 5393,
      "Ġsome": 5394,
      "çĽĴ": 5395,
      "è´´": 5396,
      "ä¸ºæĤ¨æıĲä¾Ľ": 5397,
      "ç²Ĵ": 5398,
      "æĹ¶åħī": 5399,
      "Collection": 5400,
      "æľīä¸ĢäºĽ": 5401,
      "update": 5402,
      "æıĲåĩºäºĨ": 5403,
      "é£ĺ": 5404,
      "Ġdes": 5405,
      "éĺ²æŃ¢": 5406,
      "å°±åı¯ä»¥": 5407,
      "å¿§": 5408,
      "åº¦è¿ĩ": 5409,
      "{})": 5410,
      "chedule": 5411,
      "ç»Łè®¡": 5412,
      "éģĩåĪ°äºĨ": 5413,
      "å¢Ļ": 5414,
      "è¿ħéĢŁ": 5415,
      "å¤§æķ°æį®": 5416,
      "èı²": 5417,
      "åī§æĥħ": 5418,
      "çļĦç²¾": 5419,
      "Manager": 5420,
      "\"},": 5421,
      "ä¹±": 5422,
      "Ġgr": 5423,
      "ponent": 5424,
      "å¤ªéĺ³èĥ½": 5425,
      "èĤ´": 5426,
      "ç¦»å¼Ģ": 5427,
      "pi": 5428,
      "èĢĥè¯ķ": 5429,
      "Ġè¯·ä»İ": 5430,
      "è·¨": 5431,
      "æŀĦå»º": 5432,
      "([": 5433,
      "æĽ¾ç»ı": 5434,
      "çľŁå®ŀ": 5435,
      "ccount": 5436,
      "current": 5437,
      "åħµ": 5438,
      "ä¸Ģéĥ¨": 5439,
      "æ¸¸å®¢": 5440,
      "All": 5441,
      "çĪ¬": 5442,
      "ç»´çĶŁç´ł": 5443,
      "åº¦åģĩ": 5444,
      "array": 5445,
      "message": 5446,
      "ven": 5447,
      "æ±¤å§Ĩ": 5448,
      "now": 5449,
      "äººåı£": 5450,
      "çĶµæ±ł": 5451,
      "æī¬": 5452,
      "é¡ºåºı": 5453,
      "HO": 5454,
      "ç¢į": 5455,
      "åħĶ": 5456,
      "åħįçĸ«": 5457,
      "èĮĥåĽ´åĨħ": 5458,
      "æĲħ": 5459,
      "åį°åº¦": 5460,
      "èĴ¸": 5461,
      "ä¸Ĭè¿°": 5462,
      "Ġ9": 5463,
      "plement": 5464,
      "Args": 5465,
      "ES": 5466,
      "Ġpe": 5467,
      "Rece": 5468,
      "ç´§å¼ł": 5469,
      "train": 5470,
      "ton": 5471,
      "cope": 5472,
      "å¿ł": 5473,
      "éĺ´": 5474,
      "çļĦæĬĢèĥ½": 5475,
      "ä¿¡ä»»": 5476,
      "è¿Ļä¸¤ä¸ª": 5477,
      "vert": 5478,
      "çļĦæŀ": 5479,
      "åıĤè§Ĥ": 5480,
      "Ġtarget": 5481,
      "æĻºæħ§": 5482,
      "çļĦæ¶": 5483,
      "èį·": 5484,
      "åŁ¹åħ»": 5485,
      "çĹħäºº": 5486,
      "éĩįå¤§": 5487,
      "æ¡¥": 5488,
      "çĻ¼": 5489,
      "Descri": 5490,
      "my": 5491,
      "åħ´å¥ĭ": 5492,
      "stand": 5493,
      "å°Ĩå®ĥä»¬": 5494,
      "åį³ä½¿": 5495,
      "ä¸ĭéĻį": 5496,
      "çļĦè¯Ńè¨Ģ": 5497,
      "è¦Ĩ": 5498,
      "bers": 5499,
      "æŀģç«¯": 5500,
      "Ġdistributed": 5501,
      "ç¢İ": 5502,
      "çļĦåįķè¯į": 5503,
      "å¯¹äººç±»": 5504,
      "app": 5505,
      "çļĦæł¸": 5506,
      ">>": 5507,
      "rec": 5508,
      "Ġed": 5509,
      "æİĪ": 5510,
      "æĸĩä»¶": 5511,
      "è®¤çŁ¥": 5512,
      "æŁ¥è¯¢": 5513,
      "OF": 5514,
      "éĩĮçļĦ": 5515,
      "å·¨å¤§çļĦ": 5516,
      "((": 5517,
      "çŃīå¾ħ": 5518,
      "ä½ľä¸ºä¸Ģä¸ª": 5519,
      "èįīèİĵ": 5520,
      "çķĻä¸ĭ": 5521,
      "æĺ¥å¤©": 5522,
      "ä¸ŃæĢ§": 5523,
      "åĴĮåıĳå±ķ": 5524,
      "ä¹ĭå¤Ħ": 5525,
      "è½¦è¾Ĩ": 5526,
      "GPT": 5527,
      "çļĦè¿ĲåĬ¨": 5528,
      "çļĦæ½": 5529,
      "èĤĮèĤī": 5530,
      "æĸ°åŀĭ": 5531,
      "æł¹æį®ä»¥ä¸ĭ": 5532,
      "çĪ½": 5533,
      "ç¦ģ": 5534,
      "åĿĩåĮĢ": 5535,
      "ĠéĤ£": 5536,
      "ĠAn": 5537,
      "æµģç¨ĭ": 5538,
      "Ġdiffer": 5539,
      "project": 5540,
      "âĢĿãĢģâĢľ": 5541,
      "target": 5542,
      "ä¸Ģä¸ªåı¥åŃĲ": 5543,
      "åĵ²åŃ¦": 5544,
      "å¯¹æĸ¹": 5545,
      "èĥ¡": 5546,
      "äº§çĶŁäºĨ": 5547,
      "lib": 5548,
      "Ġhis": 5549,
      "ĠCh": 5550,
      "Ġcount": 5551,
      "Ġpot": 5552,
      "Ġbuild": 5553,
      "ĠassertEquals": 5554,
      "Ġä½¿çĶ¨": 5555,
      "çŃīéĹ®é¢ĺ": 5556,
      "Start": 5557,
      "çī©çĲĨåŃ¦": 5558,
      "Back": 5559,
      "æĤł": 5560,
      "Ġlong": 5561,
      "èİī": 5562,
      "çļĦä¸Ģéĥ¨åĪĨ": 5563,
      "ween": 5564,
      "ymbol": 5565,
      "ä¼Ļ": 5566,
      "èĩªä¸»": 5567,
      "Ġtrain": 5568,
      "æ¬²": 5569,
      "æĽ´æĸ°": 5570,
      "å½¢çĬ¶": 5571,
      "åĵĪåĪ©": 5572,
      "åŁ¹è®Ń": 5573,
      "********": 5574,
      "åıĸåĨ³": 5575,
      "åĪĻæĺ¯": 5576,
      "part": 5577,
      "éĺµ": 5578,
      "éĽĨä¸Ń": 5579,
      "ĠassertThat": 5580,
      "çļĦç½ĳ": 5581,
      "ants": 5582,
      "çļĦæĦıä¹ī": 5583,
      "Lo": 5584,
      "Ġtext": 5585,
      "èıľåĵģ": 5586,
      "åıĸåĨ³äºİ": 5587,
      "åĪĨå¸ĥ": 5588,
      "ä¸ĢäºĽåħ³äºİ": 5589,
      "çļĦæıĲ": 5590,
      "ne": 5591,
      "çĮİ": 5592,
      "sible": 5593,
      "æķ¦": 5594,
      "åŃĹç¬¦": 5595,
      "æĢ»çļĦ": 5596,
      "nown": 5597,
      "å¸¸å¸¸": 5598,
      "Ġcor": 5599,
      "åĪºæ¿Ģ": 5600,
      "çļĦåŁºç¡Ģ": 5601,
      "Options": 5602,
      "æī®": 5603,
      "Ġitem": 5604,
      "store": 5605,
      "æľīçĤ¹": 5606,
      "å½¼æŃ¤": 5607,
      "printf": 5608,
      "ç¾Ĭ": 5609,
      "çĤ¸": 5610,
      "ä¾µ": 5611,
      "ä¼ĺè´¨": 5612,
      "å±ħæ°ĳ": 5613,
      "unk": 5614,
      "Ġimage": 5615,
      "çº·": 5616,
      "çģŃ": 5617,
      "çļĦæ¼Ķ": 5618,
      "Ġback": 5619,
      "æĪĲç»©": 5620,
      "Ġblock": 5621,
      "Default": 5622,
      "ä¸ŃçļĦåºĶçĶ¨": 5623,
      "æĬ«èĲ¨": 5624,
      "Frame": 5625,
      "å¤ļæķ°": 5626,
      "çļĦæ²»": 5627,
      "å°Ĩåľ¨": 5628,
      "bin": 5629,
      "æĪĸåħ¶ä»ĸ": 5630,
      "çı¾": 5631,
      "UL": 5632,
      "åħ¬æŃ£": 5633,
      "Ġservice": 5634,
      "æĲħæĭĮ": 5635,
      "æĺ¯éĿŀå¸¸": 5636,
      "éĢĬ": 5637,
      "ç»ĵæĿŁ": 5638,
      "very": 5639,
      "ç»¼åĲĪ": 5640,
      "éĩįè§Ĩ": 5641,
      "éĺ»": 5642,
      "çļĦé¢ľèī²": 5643,
      "ped": 5644,
      "'],": 5645,
      "ency": 5646,
      "fix": 5647,
      "Ġtr": 5648,
      "éģĵè·¯": 5649,
      "image": 5650,
      "éģŃ": 5651,
      "Delete": 5652,
      "ä¼¯": 5653,
      "åį°è±¡": 5654,
      "çĨĬçĮ«": 5655,
      "Number": 5656,
      "æĿ¥è§£åĨ³": 5657,
      "æıĲç¤º": 5658,
      "åĬ¨åĬĽ": 5659,
      "Ġac": 5660,
      "å¿½": 5661,
      "ends": 5662,
      "ä»·åĢ¼è§Ĥ": 5663,
      "èĢħçļĦ": 5664,
      "uffer": 5665,
      "è¯ģæį®": 5666,
      "PO": 5667,
      "å¤§çº¦": 5668,
      "é²ģ": 5669,
      "LO": 5670,
      "é¤Ĳé¦Ĩ": 5671,
      "æĹ¶åĪ»": 5672,
      "åĪĨåŃĲ": 5673,
      "åħ·å¤ĩ": 5674,
      "Ġform": 5675,
      "åĲįä¸º": 5676,
      "ik": 5677,
      "èº«ä»½": 5678,
      "åħĪçĶŁ": 5679,
      "çķªèĮĦ": 5680,
      "CT": 5681,
      "å¼Ģå¤´": 5682,
      "ĠOR": 5683,
      "å¹¶ä¸º": 5684,
      "éĿŀå¸¸æĦŁè°¢": 5685,
      "å¿ĥçĲĨåģ¥åº·": 5686,
      "åħħè¶³": 5687,
      "press": 5688,
      "æĢ»çļĦæĿ¥è¯´": 5689,
      "åĬłä¸Ĭ": 5690,
      "å°ıæĿİ": 5691,
      "æĽ¼": 5692,
      "çŁ¿": 5693,
      "Ġ$": 5694,
      "andle": 5695,
      "è¶ħå¸Ĥ": 5696,
      "çļĦè®¾è®¡": 5697,
      "çļĦä»»åĬ¡": 5698,
      "Ġfollow": 5699,
      "æł¹æį®ç»Ļå®ļçļĦ": 5700,
      "arn": 5701,
      "çİ©å®¶": 5702,
      "block": 5703,
      "çĽĳæµĭ": 5704,
      "çļĦç³ĸæŀľ": 5705,
      "Table": 5706,
      "è¯¥æĸĩæľ¬": 5707,
      "Ġorder": 5708,
      "Ġass": 5709,
      "è£Ļ": 5710,
      "èĩªçĦ¶çģ¾å®³": 5711,
      "ä»¥ä¸ĭæĺ¯ä¸Ģéģĵ": 5712,
      "é»ĳèī²": 5713,
      "45": 5714,
      "å½±åĥı": 5715,
      "ä¸Ģåľº": 5716,
      "èĬ³": 5717,
      "Block": 5718,
      "è¢ĸ": 5719,
      "Metric": 5720,
      "ä¸¤ç§į": 5721,
      "Ġthrows": 5722,
      "æĺ¾èĳĹ": 5723,
      "æľĢé«ĺ": 5724,
      "è§Ĩä¸º": 5725,
      "å°ıåŃ¦æķ°åŃ¦é¢ĺ": 5726,
      "sp": 5727,
      "ä»¥ä¸ĭæĺ¯ä¸Ģéģĵå°ıåŃ¦æķ°åŃ¦é¢ĺ": 5728,
      "ĠÃ": 5729,
      "çĽ¾": 5730,
      "rop": 5731,
      "acy": 5732,
      "\".": 5733,
      "ç´«": 5734,
      "è¢«å¹¿æ³Ľ": 5735,
      "PE": 5736,
      "èĬĤçº¦": 5737,
      "çļĦåħ·ä½ĵ": 5738,
      "åĮ»éĻ¢": 5739,
      "ä¸»è¦ģè§ĤçĤ¹": 5740,
      "æİĴåºı": 5741,
      "Address": 5742,
      "å¹´è½»çļĦ": 5743,
      "stream": 5744,
      "çĽŁ": 5745,
      "Ġquery": 5746,
      "Sec": 5747,
      "call": 5748,
      "Product": 5749,
      "fg": 5750,
      "èĢĮæĺ¯": 5751,
      "Ġens": 5752,
      "æĶ»åĩ»": 5753,
      "ian": 5754,
      "æľīçļĦ": 5755,
      "æ¢ħ": 5756,
      "åĴĮå®īåħ¨": 5757,
      "next": 5758,
      "æĽ´å®¹æĺĵ": 5759,
      "å§Ķ": 5760,
      "æĶ¶åħ¥": 5761,
      "ohn": 5762,
      "ä¸ĵå®¶": 5763,
      "ermissions": 5764,
      "åĭķ": 5765,
      "å¹´ä»£": 5766,
      "å®¤åĨħ": 5767,
      "Ġexper": 5768,
      "lease": 5769,
      "äººä½ĵ": 5770,
      "å¤ľæĻļ": 5771,
      "content": 5772,
      "ä¸¾è¡Į": 5773,
      "çº¤": 5774,
      "åħĭæľį": 5775,
      "åı¤èĢģ": 5776,
      "23": 5777,
      "èİ±": 5778,
      "Ġcontent": 5779,
      "gram": 5780,
      "lem": 5781,
      "ä¸İåħ¶ä»ĸ": 5782,
      "è½¬åĮĸ": 5783,
      "é¢ĨåŁŁçļĦ": 5784,
      "actory": 5785,
      "Filter": 5786,
      "æĺİçĻ½": 5787,
      "çļĦæĥħåĨµä¸ĭ": 5788,
      "resh": 5789,
      "èıĮ": 5790,
      "cript": 5791,
      "å¾ªçİ¯": 5792,
      "çļĦæ¦Ĥå¿µ": 5793,
      "å¤§èĦĳ": 5794,
      "è¢«ç§°ä¸º": 5795,
      "ING": 5796,
      "æĽ´å¿«": 5797,
      "æ²¿": 5798,
      "ä¸ªæĢ§åĮĸ": 5799,
      "Gener": 5800,
      "å¯Ĩçłģ": 5801,
      "Ġsource": 5802,
      "ActionGroup": 5803,
      "ĠĠĠĠĠĠĠĠĠĠĠ": 5804,
      "çİ¯å¢ĥæ±¡æŁĵ": 5805,
      "ãĢĭï¼Į": 5806,
      "åĿĢ": 5807,
      "Task": 5808,
      "å¾Īæľī": 5809,
      "Ġmight": 5810,
      "table": 5811,
      "çĲ´": 5812,
      "åĩĨç¡®åľ°": 5813,
      "iddle": 5814,
      "Ġbetween": 5815,
      "Command": 5816,
      "prov": 5817,
      "è¿ĻæĦıåĳ³çĿĢ": 5818,
      "itional": 5819,
      "Source": 5820,
      "å®£å¸ĥ": 5821,
      "æµ·å¹³éĿ¢": 5822,
      "ç»´æĮģ": 5823,
      "ids": 5824,
      "è¾ħåĬ©": 5825,
      "åĪ©çĽĬ": 5826,
      "Ġexample": 5827,
      "çļĦæĶ¯æĮģ": 5828,
      "bed": 5829,
      "å°ıæĺİæīĭ": 5830,
      "rem": 5831,
      "è¿Ļå®¶é¤Ĳåİħ": 5832,
      "ifier": 5833,
      "èĩªèº«": 5834,
      "Ġsuper": 5835,
      "ĠYou": 5836,
      "roller": 5837,
      "Write": 5838,
      "æĴ°": 5839,
      "itive": 5840,
      "åĩºå¤Ħ": 5841,
      "äººå£«": 5842,
      "åŃĲåĴĮ": 5843,
      "Dir": 5844,
      "åĨ¬åŃ£": 5845,
      "çļĦä¸ĢäºĽ": 5846,
      "ä¾Ŀèµĸ": 5847,
      "duc": 5848,
      "æľīæķĪçļĦ": 5849,
      "Util": 5850,
      "çĶŁæĪĲä¸Ģç¯ĩ": 5851,
      "Mod": 5852,
      "ä½¿çĶ¨äºĨ": 5853,
      "çļĦä¸Ģæ®µ": 5854,
      "lobal": 5855,
      "æĪĳæĺ¯": 5856,
      "Alert": 5857,
      "Kind": 5858,
      "åĴª": 5859,
      "([]": 5860,
      "åĸ»": 5861,
      "æ¯ķ": 5862,
      "çļĦåŁºæľ¬": 5863,
      "ç¡®å®ŀ": 5864,
      "equal": 5865,
      "å®ŀæĹ¶": 5866,
      "tribute": 5867,
      "çłĶåıĳ": 5868,
      "cle": 5869,
      "cmd": 5870,
      "ĠAuth": 5871,
      "____": 5872,
      "çĳŀ": 5873,
      "çļĦæł¸å¿ĥ": 5874,
      "å¿ĥèĦı": 5875,
      "ç¼ºçĤ¹": 5876,
      "Ġdirect": 5877,
      "èĮ¨": 5878,
      "è¿ĳå¹´æĿ¥": 5879,
      "äº§åĵģçļĦ": 5880,
      "ħåĬĽ": 5881,
      "è¯ķåĽ¾": 5882,
      "cs": 5883,
      "status": 5884,
      "è¿Ļå°Ĩ": 5885,
      "ily": 5886,
      "è®¡ç®Ĺæľºè§Ĩè§ī": 5887,
      "Struct": 5888,
      "Ġapi": 5889,
      "è±ª": 5890,
      "è²Į": 5891,
      "æĪĳæ²¡æľī": 5892,
      "ts": 5893,
      "èµ¢å¾Ĺ": 5894,
      "ä»¥æĿ¥": 5895,
      "çĽĳçĿ£": 5896,
      "çļĦæİªæĸ½": 5897,
      "æľĢå¤§çļĦ": 5898,
      "æĸĩç«łä¸ŃçļĦ": 5899,
      "æĬ½åıĸåĩº": 5900,
      "Ġ...": 5901,
      "ĠAN": 5902,
      "éªĮè¯ģ": 5903,
      "æĿİæĺİ": 5904,
      "æĻ¨": 5905,
      "æĬĢæľ¯åĴĮ": 5906,
      "è¯¸": 5907,
      "ances": 5908,
      "Ġdec": 5909,
      "çļĦæ²»çĸĹ": 5910,
      "Fl": 5911,
      "çļĦæ¬": 5912,
      "çļĦæĽ": 5913,
      "èİİ": 5914,
      "ä½ľå®¶": 5915,
      "imest": 5916,
      "å¾Īå¤§": 5917,
      "åĲĦåľ°": 5918,
      "è¯ģæĺİ": 5919,
      "çļĦè¿ĩç¨ĭ": 5920,
      "äºĨå¾Īå¤ļ": 5921,
      "çº¹": 5922,
      "æĤ¬": 5923,
      "çļ®èĤ¤": 5924,
      "HE": 5925,
      "æĳĨ": 5926,
      "anges": 5927,
      "pha": 5928,
      "çļĦæ½ľ": 5929,
      "åĽłä¸ºå®ĥä»¬": 5930,
      "Ġperson": 5931,
      "ear": 5932,
      "query": 5933,
      "çļĦæ³ķ": 5934,
      "mand": 5935,
      "owever": 5936,
      "ĠéĤ£ä¹Ī": 5937,
      "å¥½å¤Ħ": 5938,
      "åħ¬åĽŃéĩĮ": 5939,
      "çĶĺ": 5940,
      "ç§Ł": 5941,
      "çļĦæĥħç»ª": 5942,
      "çļĦçľĭ": 5943,
      "ĠX": 5944,
      "ession": 5945,
      "åıªèĥ½": 5946,
      "æŁ¥çľĭ": 5947,
      "è´Łè´£": 5948,
      "è¿Ĳè¡Į": 5949,
      "èĢį": 5950,
      "ilename": 5951,
      "è®¸å¤ļäºº": 5952,
      "Sprintf": 5953,
      "ĊĠĠĠĠĠĠĠĠĠĠĠĠ": 5954,
      "æģ¢": 5955,
      "å¿ĥåĴĮ": 5956,
      "ĠĠĠĠĠĠĠĠĠ": 5957,
      "Ġformat": 5958,
      "åĽ¾ä¹¦": 5959,
      "assertEqual": 5960,
      "length": 5961,
      "çĬ¯ç½ª": 5962,
      "æĥ³è±¡": 5963,
      "Ġthan": 5964,
      "ä»ª": 5965,
      "åĴĮæľįåĬ¡": 5966,
      "Ġnext": 5967,
      "å±ı": 5968,
      "çļĦå°ıè¯´": 5969,
      "èģĺ": 5970,
      "ector": 5971,
      "pact": 5972,
      "Ġsol": 5973,
      "Web": 5974,
      "Properties": 5975,
      "Return": 5976,
      "åıĤèĢĥ": 5977,
      "Ġ||": 5978,
      "Ġvari": 5979,
      "åķĨåĬ¡": 5980,
      "tocol": 5981,
      "Ġlanguage": 5982,
      "çļĦåĬ¨çī©": 5983,
      "éĻ·": 5984,
      "éķ¿æĹ¶éĹ´": 5985,
      "play": 5986,
      "75": 5987,
      "åľĪ": 5988,
      "ural": 5989,
      "çļĦåıĺåĮĸ": 5990,
      "çĥ¹é¥ª": 5991,
      "oci": 5992,
      "28": 5993,
      "build": 5994,
      "çļĦä¸į": 5995,
      "Ġopen": 5996,
      "æĭĵ": 5997,
      "çļĦæľįåĬ¡": 5998,
      "èħĲ": 5999,
      "ailable": 6000,
      "æŃ»äº¡": 6001,
      "Ġtask": 6002,
      "Ġfound": 6003,
      "ç»ıçĲĨ": 6004,
      "å®ĹæķĻ": 6005,
      "çĽ¸åıį": 6006,
      "åĭĩæ°Ķ": 6007,
      "ä¸Ģä»¶": 6008,
      "çļĦæ¨": 6009,
      "Sup": 6010,
      "ero": 6011,
      "Ġmult": 6012,
      "ush": 6013,
      "ĠSer": 6014,
      "ç£¨": 6015,
      "ĠValue": 6016,
      "Container": 6017,
      "è¿«": 6018,
      "åı¯ä»¥å°Ĩ": 6019,
      "æĭĶ": 6020,
      "æĪĳä»¬çļĦçĶŁæ´»": 6021,
      "models": 6022,
      "æĪĲè¯Ńåĩºå¤Ħ": 6023,
      "éĺ¶æ®µ": 6024,
      "ç©Ĩ": 6025,
      "çģµæ´»": 6026,
      "Ġeffect": 6027,
      "kwargs": 6028,
      "çļĦæ¢": 6029,
      "Ġsim": 6030,
      "éĤĢ": 6031,
      "å¤ļæł·æĢ§": 6032,
      "yle": 6033,
      "Ġcustom": 6034,
      "ç®Ģæ´ģæĺİäºĨ": 6035,
      "ier": 6036,
      "çļĦäº§åĵģ": 6037,
      "åĮ¹": 6038,
      "åįģå¹´": 6039,
      "Endpoint": 6040,
      "ĠéĩįåĨĻ": 6041,
      "çłĶç©¶è¡¨æĺİ": 6042,
      "ĽçĽ¾": 6043,
      ".\"": 6044,
      "åı¯ä»¥æł¹æį®": 6045,
      "ä¿Ŀéļľ": 6046,
      "å°½éĩı": 6047,
      "æľīçĽĬ": 6048,
      "åĪł": 6049,
      "åıĳæĺİ": 6050,
      "åīª": 6051,
      "np": 6052,
      "ä¸ºä½ł": 6053,
      "Ġlead": 6054,
      "ä¸Ģåħ±æľī": 6055,
      "æĢª": 6056,
      "è§Ĥçľĭ": 6057,
      "å¹´è½»äºº": 6058,
      "æŀĿ": 6059,
      "èıľèĤ´": 6060,
      "æī®æ¼Ķ": 6061,
      "è¿Ļæ¬¡": 6062,
      "Pre": 6063,
      "æŁĶè½¯": 6064,
      "è¿Ļç¯ĩæĸĩç«łä¸ŃæıĲåıĸåĩº": 6065,
      "å¤§éĩıçļĦ": 6066,
      "çļĦçĶŁæ´»æĸ¹å¼ı": 6067,
      "last": 6068,
      "Ġsm": 6069,
      "å¤§åŀĭ": 6070,
      "äººä»¬çļĦ": 6071,
      "ccur": 6072,
      "ecute": 6073,
      "åı¯ä»¥éĢīæĭ©": 6074,
      "åħ¬éĩĮ": 6075,
      "é£Łè°±": 6076,
      "è¿ĲçĶ¨": 6077,
      "æ°¸è¿ľ": 6078,
      "åį§": 6079,
      "å°±ä¼ļ": 6080,
      "åĲĽ": 6081,
      "defer": 6082,
      "æĻĴ": 6083,
      "çļĦçĸ": 6084,
      "å±±å³°": 6085,
      "Date": 6086,
      "server": 6087,
      "æĸĩæĺİ": 6088,
      "è¯·æıĲä¾Ľ": 6089,
      "èģĮä½į": 6090,
      "bytes": 6091,
      "Ġaction": 6092,
      "åĩ¡": 6093,
      "ptor": 6094,
      "éł": 6095,
      "Ġthrough": 6096,
      "ä½Ĩä»ĸ": 6097,
      "å¹½": 6098,
      "èĤ¡ç¥¨": 6099,
      "æĺ¯åħ³äºİ": 6100,
      "itch": 6101,
      "æģĭ": 6102,
      "Dis": 6103,
      "da": 6104,
      "çļĦçĽ®æłĩ": 6105,
      "åīįæıĲ": 6106,
      "35": 6107,
      "çĶµå½±çļĦ": 6108,
      "çİ©åħ·": 6109,
      "Max": 6110,
      "æ®ĸ": 6111,
      "éĩĬæĶ¾": 6112,
      "join": 6113,
      "ither": 6114,
      "Cluster": 6115,
      "è§Ĵèī²ä¿¡æģ¯": 6116,
      "çļĦæľºä¼ļ": 6117,
      "æĪĳè§īå¾Ĺ": 6118,
      "è°Ĳ": 6119,
      "å®ŀçĶ¨": 6120,
      "æŃ£å¸¸": 6121,
      "éĩįè¦ģçļĦæĺ¯": 6122,
      "æĳĩ": 6123,
      "Ġincre": 6124,
      "shape": 6125,
      "env": 6126,
      "åıĸå¾ĹäºĨ": 6127,
      "è¢«è®¤ä¸ºæĺ¯": 6128,
      "Ġdifferent": 6129,
      "task": 6130,
      "å¾Ĵ": 6131,
      "king": 6132,
      "Ġam": 6133,
      "Invalid": 6134,
      "Ent": 6135,
      "çļĦçĬ": 6136,
      "åĴĮæĶ¯æĮģ": 6137,
      "å°ıåįİ": 6138,
      "Ġ{'": 6139,
      "è°ĥåĳ³": 6140,
      "ç»Ļåĩºä¸Ģä¸ª": 6141,
      "uint": 6142,
      "çļĦç¾İé£Ł": 6143,
      "IME": 6144,
      "ood": 6145,
      "åĽŀçŃĶè¿Ļä¸ªéĹ®é¢ĺ": 6146,
      "Page": 6147,
      "cp": 6148,
      "æ³ķè§Ħ": 6149,
      "è¿Ľè¡Įæĳĺè¦ģ": 6150,
      "__(": 6151,
      "Ġè¿Ļä¸ª": 6152,
      "å¿ħè¦ģçļĦ": 6153,
      "MA": 6154,
      "Ġop": 6155,
      "ĠAI": 6156,
      "æĢİæł·": 6157,
      "èĴĤ": 6158,
      "æĽ¿ä»£": 6159,
      "çļĦæĢģ": 6160,
      "æ¼Ĥäº®": 6161,
      "fect": 6162,
      "å¼ķåıĳ": 6163,
      "ĠBy": 6164,
      "host": 6165,
      "ä¸ĭéĽ¨": 6166,
      "æĳ©": 6167,
      "åºĨç¥Ŀ": 6168,
      "ä¹ŁéľĢè¦ģ": 6169,
      "ä¾ĽåºĶ": 6170,
      "ä»Ĭå¹´": 6171,
      "ä¿Ĺ": 6172,
      "æĦŁåĪ°éĿŀå¸¸": 6173,
      "Ġelif": 6174,
      "velop": 6175,
      "çİ©èĢį": 6176,
      "Ġloc": 6177,
      "æľªçŁ¥": 6178,
      "çŃĶæ¡Īæĺ¯": 6179,
      "éĢ²": 6180,
      "å¤§å¤ļæķ°": 6181,
      "èĢĮè¨Ģ": 6182,
      "éķ¿çļĦ": 6183,
      "æ²Ļæĭī": 6184,
      "ä¸ģ": 6185,
      "open": 6186,
      "é¸£": 6187,
      "æľīä»»ä½ķ": 6188,
      "æİĺ": 6189,
      "èĻİ": 6190,
      "æĥħæĦŁåĪĨæŀĲ": 6191,
      "Em": 6192,
      "çļĦæĹħæ¸¸": 6193,
      "å®¶éĩĮ": 6194,
      "å£¤": 6195,
      "çºłæŃ£": 6196,
      "mark": 6197,
      "çļĦä¸ĸçķĮ": 6198,
      "Ġbase": 6199,
      "è´§å¸ģ": 6200,
      "ðŁ": 6201,
      "inue": 6202,
      "è¡«": 6203,
      "2021": 6204,
      "å§¿": 6205,
      "Ġcomp": 6206,
      "åĭĴ": 6207,
      "ç¾¤ä½ĵ": 6208,
      "çļĦçľĭæ³ķ": 6209,
      "åĪļåĪļ": 6210,
      "æŁ¥æī¾": 6211,
      "Ġwrit": 6212,
      "çģ°": 6213,
      "Ġpoint": 6214,
      "èĬĿ": 6215,
      "Ġq": 6216,
      "æĿİåĽĽ": 6217,
      "''": 6218,
      "ä¹Łä¸į": 6219,
      "ives": 6220,
      "éĩİçĶŁ": 6221,
      "Ġpa": 6222,
      "è¶³å¤ŁçļĦ": 6223,
      "å¿ĥæĢģ": 6224,
      "æ¥ļ": 6225,
      "éĹ®é¢ĺçļĦ": 6226,
      "æłĩçŃ¾": 6227,
      "Ġprotect": 6228,
      "Ġbeen": 6229,
      "åİĺ": 6230,
      "Part": 6231,
      "åĴĮæ°´": 6232,
      "Ġmark": 6233,
      "çļĦçľŁ": 6234,
      "Ġparams": 6235,
      "éĺĶ": 6236,
      "Ġstep": 6237,
      "ĠSee": 6238,
      "Ġaccess": 6239,
      "è£ģ": 6240,
      "ä¸»äººåħ¬": 6241,
      "Ġhow": 6242,
      "pkg": 6243,
      "æıŃ": 6244,
      "event": 6245,
      "äºĭæķħ": 6246,
      "åĸľçĪ±": 6247,
      "æģ¢å¤į": 6248,
      "éĩĮéĿ¢": 6249,
      "ä»ĸä»¬åľ¨": 6250,
      "plied": 6251,
      "å¢¨": 6252,
      "çļĦé£İæł¼": 6253,
      "çļĦåĲ«ä¹ī": 6254,
      "å±ķå¼Ģ": 6255,
      "Ġsame": 6256,
      "older": 6257,
      "è·ĥ": 6258,
      "Ġatt": 6259,
      "Volume": 6260,
      "æĪĳä¸į": 6261,
      "ä¼¤å®³": 6262,
      "å²©": 6263,
      "Case": 6264,
      "FI": 6265,
      "ffset": 6266,
      "ä¼¦æķ¦": 6267,
      "çļĦæģ": 6268,
      "åĲĮæł·": 6269,
      "æĽ´ä¸º": 6270,
      "marshal": 6271,
      "æĤī": 6272,
      "Ġdict": 6273,
      "æ³¢çī¹": 6274,
      "è°Ĭ": 6275,
      "å°±åĥı": 6276,
      "SI": 6277,
      "å¤®": 6278,
      "æŃ£å¼ı": 6279,
      "ä¹ĭéĹ´çļĦåħ³ç³»": 6280,
      "onitor": 6281,
      "ries": 6282,
      "æĪĲæŀľ": 6283,
      "ĠæĪĳæĥ³": 6284,
      "Ġaut": 6285,
      "æĽ´æľī": 6286,
      "ables": 6287,
      "åı¦ä¸Ģ": 6288,
      "Ġbreak": 6289,
      "æķ´ä½ĵ": 6290,
      "èĴĻ": 6291,
      "çļĦçĭĹ": 6292,
      "é¸Ń": 6293,
      "çĶ·åŃĲ": 6294,
      "äº§ä¸ļ": 6295,
      "åľºæīĢ": 6296,
      "æ·±è¿ľ": 6297,
      "çļĦæĬķ": 6298,
      "å®¿": 6299,
      "ails": 6300,
      "åĲĮåŃ¦": 6301,
      "å½ĵæĹ¶": 6302,
      "æĺĵæĩĤ": 6303,
      "éģµå®Ī": 6304,
      "do": 6305,
      "ç¡®è®¤": 6306,
      "æīĭæ®µ": 6307,
      "èĴľ": 6308,
      "åĬĽäºİ": 6309,
      "logger": 6310,
      "çĽĳç®¡": 6311,
      "ä½¿çĶ¨çļĦ": 6312,
      "float": 6313,
      "aining": 6314,
      "ommit": 6315,
      "åĴĮåºĶçĶ¨": 6316,
      "å¦Ĥä½ķåľ¨": 6317,
      "å°ıæĺİåĴĮ": 6318,
      "å·¥èīº": 6319,
      "æĦıè¯ĨåĪ°": 6320,
      "è¦ģçĤ¹": 6321,
      "dim": 6322,
      "äº¤äºĴ": 6323,
      "æĪĲåĬŁçļĦ": 6324,
      "ç¼ĸåĨĻä¸Ģä¸ª": 6325,
      "æ¦Ĥè¿°": 6326,
      "è¯Ńåı¥": 6327,
      "æĮĩçļĦæĺ¯": 6328,
      "çĸĳéĹ®": 6329,
      "ä¸²": 6330,
      "æĺ¯ä¸į": 6331,
      "olv": 6332,
      "ĠOF": 6333,
      "éĥ½åı¯ä»¥": 6334,
      "Ġexist": 6335,
      "åľ°ä¸Ĭ": 6336,
      "æĬĳ": 6337,
      "å½±çīĩ": 6338,
      "PtrOutput": 6339,
      "ä¸Ģç³»åĪĹ": 6340,
      "æİ¨æĸŃ": 6341,
      "åĲĥäºĨ": 6342,
      "å¯¸": 6343,
      "åģıå¥½": 6344,
      "ined": 6345,
      "Ġtech": 6346,
      "29": 6347,
      "NT": 6348,
      "æľºåĪ¶": 6349,
      "åŁİå¸ĤçļĦ": 6350,
      "33": 6351,
      "æĭħå¿ĥ": 6352,
      "Ġline": 6353,
      "Ġstatus": 6354,
      "ä¸Ģæ®µæĸĩæľ¬": 6355,
      "å·¥ç¨ĭå¸Ī": 6356,
      "åĪ·": 6357,
      "ç®Ģçº¦": 6358,
      "ĊĊĉĉ": 6359,
      "æĺ¯æľĢ": 6360,
      "å¼ºå¤§": 6361,
      "Metadata": 6362,
      "æª¬": 6363,
      "Step": 6364,
      "èıľåįķ": 6365,
      "éĩĩåıĸæİªæĸ½": 6366,
      "çļĦæ·±": 6367,
      "ĠReturn": 6368,
      "æııç»ĺ": 6369,
      "æĦ¿æĦı": 6370,
      "çŁ¥åĲį": 6371,
      "æĲº": 6372,
      "è¿ĶåĽŀ": 6373,
      "Store": 6374,
      "ç§įæ¤į": 6375,
      "åĭĩæķ¢": 6376,
      "è°ĵè¯Ń": 6377,
      "Ġbu": 6378,
      "App": 6379,
      "èŃ¦å¯Ł": 6380,
      "å¯¹è±¡": 6381,
      "è·¯ä¸Ĭ": 6382,
      "TIMESTAMP": 6383,
      "łæª¬": 6384,
      "ĠWh": 6385,
      "Factory": 6386,
      "çļĦæŃ£": 6387,
      "attern": 6388,
      "ds": 6389,
      "DO": 6390,
      "éĻª": 6391,
      "perator": 6392,
      "Ġproject": 6393,
      "è¿Ļæł·çļĦ": 6394,
      "annot": 6395,
      "ä»Ļ": 6396,
      "atures": 6397,
      "ä¸įè¶³": 6398,
      "è¯´è¯Ŀ": 6399,
      "Ġrepres": 6400,
      "common": 6401,
      "ä¸Ģå¹´": 6402,
      "imestamp": 6403,
      "æĿ¥å®ŀçİ°": 6404,
      "aut": 6405,
      "å¼ķäºº": 6406,
      "Ġfloat": 6407,
      "çĭ®": 6408,
      "è¿Ļç¯ĩæĸĩç«łä¸ŃæıĲåıĸ": 6409,
      "æ¶µçĽĸ": 6410,
      "æĻºèĥ½æīĭæľº": 6411,
      "äººç±»æ´»åĬ¨": 6412,
      "é¸Łç±»": 6413,
      "uid": 6414,
      "ä¿¡ä»°": 6415,
      "åĢĴåħ¥": 6416,
      "Description": 6417,
      "Ġerrors": 6418,
      "ĠCON": 6419,
      "åİŁåĪĻ": 6420,
      "ground": 6421,
      "æī¾åĪ°äºĨ": 6422,
      "ĠTIME": 6423,
      "èĬĤæĹ¥": 6424,
      "å°½åĬĽ": 6425,
      "æĻ®éĢļ": 6426,
      "Ġwire": 6427,
      "åħ³éĶ®åŃĹ": 6428,
      "çĬ¹": 6429,
      "86": 6430,
      "nil": 6431,
      "æĪĳå°Ĩ": 6432,
      "select": 6433,
      "è¯¥åħ¬åı¸": 6434,
      "orld": 6435,
      "è·¯çº¿": 6436,
      "çº¤ç»´": 6437,
      "columns": 6438,
      "åŀĥåľ¾åĪĨç±»": 6439,
      "åľ¨è¿ĻéĩĮ": 6440,
      "çĶ·æĢ§": 6441,
      "é¸¡èĤī": 6442,
      "74": 6443,
      "èĤł": 6444,
      "è®¤çľŁ": 6445,
      "è½»è½»": 6446,
      "æĭľ": 6447,
      "çļĦæ¸¸æĪı": 6448,
      "å¦ĩ": 6449,
      "å®īè£ħ": 6450,
      "vices": 6451,
      "å·²ç»ıæĪĲä¸º": 6452,
      "äºĴçĽ¸": 6453,
      "æŃĮè¯į": 6454,
      "RAN": 6455,
      "ä¾§": 6456,
      "æĦŁæŁĵ": 6457,
      "åıĭå¥½": 6458,
      "çº½çº¦å¸Ĥ": 6459,
      "åĢį": 6460,
      "æĹłéĻĲ": 6461,
      "Access": 6462,
      "èĤĸ": 6463,
      "æ»¤": 6464,
      "åģļå¥½": 6465,
      "è´¹çĶ¨": 6466,
      "åĪĺ": 6467,
      "ä¼ļå¯¼èĩ´": 6468,
      "other": 6469,
      "Rem": 6470,
      "description": 6471,
      "Ġhigh": 6472,
      "æłĩå¿Ĺ": 6473,
      "åħīçº¿": 6474,
      "ship": 6475,
      "ä¼¦çĲĨ": 6476,
      "çļĦæ¶Ī": 6477,
      "][": 6478,
      "çļĦçī¹çĤ¹": 6479,
      "æĮĤ": 6480,
      "èĭ±æĸĩ": 6481,
      "çĮ«åĴª": 6482,
      "éĻ¤ä»¥": 6483,
      "idx": 6484,
      "æĿĥåĪ©": 6485,
      "å¾Īå¥½çļĦ": 6486,
      "æ£ī": 6487,
      "Ġident": 6488,
      "çļĦæ¢¦": 6489,
      "åı¯ä»¥çĶ¨": 6490,
      "äºĮæ°§åĮĸ": 6491,
      "çļĦæŃ¥": 6492,
      "Det": 6493,
      "æĬĵ": 6494,
      "åĽŀå¿Ĩ": 6495,
      "Ġaddress": 6496,
      "éļľç¢į": 6497,
      "Host": 6498,
      "å¯¹åħ¶": 6499,
      "æµ·è¾¹": 6500,
      "å¼Ģå¿ĥ": 6501,
      "Ġeither": 6502,
      "expression": 6503,
      "é²¸": 6504,
      "ĠCl": 6505,
      "åĪ«äºº": 6506,
      "æıĴ": 6507,
      "å¯¼æ¼Ķ": 6508,
      "æ¸ħæĸ°": 6509,
      "AIæĬĢæľ¯": 6510,
      "æī©å¤§": 6511,
      "riteria": 6512,
      "æ·ĩ": 6513,
      "Ġæł¹æį®ä»¥ä¸ĭ": 6514,
      "è¿Ł": 6515,
      "Ġproduct": 6516,
      "rel": 6517,
      "leg": 6518,
      "éĥ½åľ¨": 6519,
      "é£ŀæľº": 6520,
      "æµ·å¹³éĿ¢ä¸Ĭåįĩ": 6521,
      "Python": 6522,
      "\\\":": 6523,
      "cast": 6524,
      "true": 6525,
      "ä½ĵéĩį": 6526,
      "åı¯ä»¥èĢĥèĻĳ": 6527,
      "èĩ´åĬĽäºİ": 6528,
      "ane": 6529,
      "æķĪçİĩåĴĮ": 6530,
      "åħģ": 6531,
      "ĠAction": 6532,
      "ason": 6533,
      "ç±»åŀĭçļĦ": 6534,
      "æĪĳä¹Ł": 6535,
      "Msg": 6536,
      "Ġpage": 6537,
      "è¯·æ±Ĥ": 6538,
      "å®Įç¾İ": 6539,
      "çĩķ": 6540,
      "å¼Ĺ": 6541,
      "æİĴåĪĹ": 6542,
      "Order": 6543,
      "çļĦçĮ": 6544,
      "ï¼ļ\"": 6545,
      "åĸľæ¬¢åĲĥ": 6546,
      "Ġcharact": 6547,
      "åįľ": 6548,
      "straint": 6549,
      "äºĭä¸ļ": 6550,
      "ä¸Ģå¼ł": 6551,
      "ç«¹": 6552,
      "åİŁæĸĩ": 6553,
      "Ġupdate": 6554,
      "èĩ³åħ³éĩįè¦ģ": 6555,
      "uture": 6556,
      "åĴĮè°Ĳ": 6557,
      "åľŁå£¤": 6558,
      "åĢ¼å¾Ĺä¸Ģ": 6559,
      "andard": 6560,
      "æİ¢éĻ©": 6561,
      "ä¸§": 6562,
      "ä¿ĿéĻ©": 6563,
      "èģļä¼ļ": 6564,
      "John": 6565,
      "çļĦä½įç½®": 6566,
      "rect": 6567,
      "åķĨåºĹ": 6568,
      "ä¸įæĸŃåľ°": 6569,
      "çļĦæĳĦ": 6570,
      "Ġtable": 6571,
      "è´¸": 6572,
      "åĲĪçī©": 6573,
      "åıĭè°Ĭ": 6574,
      "å¼ķåĬĽ": 6575,
      "Ċĉĉĉĉĉĉĉ": 6576,
      "æĻ®éģį": 6577,
      "è¿Ļåıª": 6578,
      "ä½łè®¤ä¸º": 6579,
      "Ġcommun": 6580,
      "Mem": 6581,
      "æī£": 6582,
      "éľľ": 6583,
      "Ġperform": 6584,
      "ä¼Ļä¼´": 6585,
      "Ġbr": 6586,
      "values": 6587,
      "åĩĨç¡®æĢ§": 6588,
      "çļĦé«ĺ": 6589,
      "æĥľ": 6590,
      "åĨ°æ·ĩ": 6591,
      "Cache": 6592,
      "æ³Ĭ": 6593,
      "è½¬æį¢ä¸º": 6594,
      "ä¿ĿæĮģåģ¥åº·": 6595,
      "/**": 6596,
      "Ġtypes": 6597,
      "å¸®åĬ©æĤ¨": 6598,
      "Ġreflect": 6599,
      "estimator": 6600,
      "ples": 6601,
      "çļĦåħ³ç³»": 6602,
      "Rec": 6603,
      "çļĦç¥ŀ": 6604,
      "æ¡ĥ": 6605,
      "çĻ½èī²": 6606,
      "cloud": 6607,
      "çļĦæ£": 6608,
      "åĩºè¡Į": 6609,
      "ç»ĻäºĨ": 6610,
      "åĨ°æ·ĩæ·ĭ": 6611,
      "æĪĳæľĢè¿ĳ": 6612,
      "å¼Ł": 6613,
      "çīĪæľ¬": 6614,
      "çļĦæ¯ı": 6615,
      "é©±": 6616,
      "WithContext": 6617,
      "åĪĽä¸ļ": 6618,
      "å°Ĭæķ¬": 6619,
      "Receiver": 6620,
      "çļĦæ¨¡": 6621,
      "åĪĢ": 6622,
      "åĽ¾åĥıè¯ĨåĪ«": 6623,
      "Num": 6624,
      "çļĦæŁ": 6625,
      "orch": 6626,
      "æĹłäºº": 6627,
      "è°ĥèĬĤ": 6628,
      "Ġwho": 6629,
      "token": 6630,
      "fe": 6631,
      "msg": 6632,
      "ayload": 6633,
      "ç¬¬ä¸Ģä¸ª": 6634,
      "åĲİçļĦ": 6635,
      "åĪĹä¸¾": 6636,
      "åĵªç§į": 6637,
      "ä¸Ńæľī": 6638,
      "QL": 6639,
      "åľ¨ä¸ŃåĽ½": 6640,
      "Property": 6641,
      "delete": 6642,
      "çİĩåĴĮ": 6643,
      "åĪĩæĪĲ": 6644,
      "åĲĮäºĭ": 6645,
      "è±¡å¾ģ": 6646,
      "ä¸įéľĢè¦ģ": 6647,
      "æ´ª": 6648,
      "æ¶ĪèĢĹ": 6649,
      "å¦Ĥæŀľä½łåĸľæ¬¢": 6650,
      "æµ¸": 6651,
      "header": 6652,
      "1111": 6653,
      "èĢģæĿ¿": 6654,
      "æľĢæĸ°çļĦ": 6655,
      "Ġ('": 6656,
      "ä¹°äºĨ": 6657,
      "å¹¶å°Ĩ": 6658,
      "hether": 6659,
      "æľºåĻ¨åŃ¦ä¹łç®Ĺæ³ķ": 6660,
      "æ¢¦æĥ³": 6661,
      "Print": 6662,
      "\"ï¼Į": 6663,
      "è¯»ä¹¦": 6664,
      "ä¸įè¶ħè¿ĩ": 6665,
      "expr": 6666,
      "uggestion": 6667,
      "åĴĮå¹³": 6668,
      "èĬĴ": 6669,
      "è¿Ļæ®µæĸĩåŃĹ": 6670,
      "Ġlevel": 6671,
      "çļĦçĪ±æĥħ": 6672,
      "Ġresources": 6673,
      "Ġunderstand": 6674,
      "å¯¹æīĭ": 6675,
      "cul": 6676,
      "è´«": 6677,
      "çŁĽçĽ¾": 6678,
      "åĪłéĻ¤": 6679,
      "æŀĦæĪĲ": 6680,
      "ared": 6681,
      "åħ¬ä¼Ĺ": 6682,
      "åľ¨å®¶éĩĮ": 6683,
      "foo": 6684,
      "æĹģ": 6685,
      "éģİ": 6686,
      "åħļ": 6687,
      "Ġsoftware": 6688,
      "ube": 6689,
      "ges": 6690,
      "é¢ĨåŁŁä¸Ń": 6691,
      "å¤±è´¥": 6692,
      "çļĦå¤ĸ": 6693,
      "ä»ĸæĥ³": 6694,
      "å°ıæľĭåıĭ": 6695,
      "ä¸ĢçĽ´åľ¨": 6696,
      "æĬµ": 6697,
      "åħ¶ä¸ŃåĮħæĭ¬": 6698,
      "ç¤¼çī©": 6699,
      "èĺ": 6700,
      "æľīæĹ¶": 6701,
      "iod": 6702,
      "à¦": 6703,
      "obj": 6704,
      "Ġafter": 6705,
      "allen": 6706,
      "Ġbody": 6707,
      "éĿ¢æĸĻ": 6708,
      "ä»¥ä¸ĭæĸĩç«ł": 6709,
      "ayout": 6710,
      "Position": 6711,
      "wh": 6712,
      "å¤±åİ»": 6713,
      "å®Ŀå®Ŀ": 6714,
      "Operation": 6715,
      "Ġcondition": 6716,
      "åºĦ": 6717,
      "å¹¶å°Ĩåħ¶": 6718,
      "Ġlast": 6719,
      "æīĭæľ¯": 6720,
      "è´¯": 6721,
      "æŁłæª¬": 6722,
      "ivid": 6723,
      "è¯ĦåĪĨ": 6724,
      "å°ĺ": 6725,
      "åĨ²çªģ": 6726,
      "äºĮæ°§åĮĸç¢³": 6727,
      "åĬłéĢŁ": 6728,
      "ender": 6729,
      "ĠHowever": 6730,
      "åıįæĺł": 6731,
      "Ġresults": 6732,
      "Fatal": 6733,
      "çĭĹçĭĹ": 6734,
      "Ġappro": 6735,
      "Cert": 6736,
      "ä½łåľ¨": 6737,
      "è½¨": 6738,
      "çĽ®çļĦæĺ¯": 6739,
      "èīºæľ¯å®¶": 6740,
      "Ġprovided": 6741,
      "page": 6742,
      "ä¸ªæ©ĻåŃĲ": 6743,
      "å¹¶ä¸įæĺ¯": 6744,
      "çĭĤ": 6745,
      "éĨī": 6746,
      "Ġsignific": 6747,
      "å¤©çĦ¶": 6748,
      "èĥ¸": 6749,
      "ä¸įæĸŃåıĳå±ķ": 6750,
      "Ġreturned": 6751,
      "Const": 6752,
      "Tr": 6753,
      "inition": 6754,
      "199": 6755,
      "åĩĿ": 6756,
      "coder": 6757,
      "é³": 6758,
      "å¦Īå¦Ī": 6759,
      "Ġäººå·¥æĻºèĥ½": 6760,
      "åĴĮæľĭåıĭ": 6761,
      "å¥Ķ": 6762,
      "åı¯èĥ½æĢ§": 6763,
      "é¬": 6764,
      "çļĦè´¨éĩı": 6765,
      "çĤ¹ç¬¦åı·": 6766,
      "æ¯ĶèµĽä¸Ń": 6767,
      "å¥½çľĭ": 6768,
      "è¶ĬæĿ¥è¶Ĭå¤ļ": 6769,
      "čĊĉĉ": 6770,
      "åĬĽåŃ¦": 6771,
      "igger": 6772,
      "ç¤ºä¾ĭ": 6773,
      "åĲĪåĲĮ": 6774,
      "ç¬¬äºĮä¸ª": 6775,
      "åľ¨è¿ĩåİ»": 6776,
      "Ġå¦Ĥæŀľ": 6777,
      "èģĶåĲĪ": 6778,
      "Values": 6779,
      "åħ¬å¹³": 6780,
      "çļĦä¸»æĹ¨": 6781,
      "æĺ¯åĲ¦æľī": 6782,
      "åĲ¬åĪ°": 6783,
      "çĶµåĬ¨": 6784,
      "è®©äººä»¬": 6785,
      "ä¼ĺæĥł": 6786,
      "çļĦæİĴ": 6787,
      "å°¤åħ¶æĺ¯": 6788,
      "Ġquest": 6789,
      "åıªè¦ģ": 6790,
      "å®ĮåĸĦ": 6791,
      "ä»¥ä¸ĭæĺ¯ä¸ĢäºĽ": 6792,
      "Ġmatch": 6793,
      "çļĦæµģ": 6794,
      "çĩĥæĸĻ": 6795,
      "ä¼¸": 6796,
      "ĠIm": 6797,
      "ux": 6798,
      "Profile": 6799,
      "æħ¢æħ¢": 6800,
      "su": 6801,
      "Ġoptions": 6802,
      "èĬ¬": 6803,
      "ç¢Ĺ": 6804,
      "èĥľåĪ©": 6805,
      "æı´": 6806,
      "process": 6807,
      "TY": 6808,
      "èĥ½åĬĽåĴĮ": 6809,
      "è¿Ļæĺ¯ä¸Ģç¯ĩ": 6810,
      "89": 6811,
      "åĩºçļĦ": 6812,
      "å°¿": 6813,
      "æľĢåĸľæ¬¢çļĦ": 6814,
      "bar": 6815,
      "top": 6816,
      "æĺ¯å¤ļå°ĳ": 6817,
      "Ġbased": 6818,
      "åıĸä»£": 6819,
      "500": 6820,
      "èĬĤå¥ı": 6821,
      "æĽ´é«ĺ": 6822,
      "æ¯«": 6823,
      "Ġ{@": 6824,
      "åģ¶": 6825,
      "ä¸¥æł¼": 6826,
      "åŃ¦ç§ĳ": 6827,
      "ä¸Ĭæĸĩ": 6828,
      "è§ĦèĮĥ": 6829,
      "ä»ĭç»įä¸Ģä¸ĭ": 6830,
      "ä¸ĵæ³¨äºİ": 6831,
      "Do": 6832,
      "cent": 6833,
      "ptr": 6834,
      "æĽ´å¥½åľ°çĲĨè§£": 6835,
      "æľīçĶ¨": 6836,
      "ä¹Łå°±æĺ¯": 6837,
      "åħ±äº«": 6838,
      "æĿİåįİ": 6839,
      "US": 6840,
      "IntTypeCommon": 6841,
      "fields": 6842,
      "ĠIntTypeCommon": 6843,
      "nap": 6844,
      "ä½łä¼ļ": 6845,
      "å®¶åħ·": 6846,
      "çļĦç¼ĸ": 6847,
      "Tom": 6848,
      "éģĹäº§": 6849,
      "Ġç»Ļå®ļä¸Ģä¸ª": 6850,
      "FA": 6851,
      "Ġreal": 6852,
      "åįķä½į": 6853,
      "åį«æĺŁ": 6854,
      "arm": 6855,
      "ĊĠĠĠĠĠĠĠĠĠĠĠĠĠĠĠĠĠĠĠĠĠĠĠĠĠĠĠĠĠĠĠ": 6856,
      "èĻļæĭŁçİ°å®ŀ": 6857,
      "TO": 6858,
      "Ġtwo": 6859,
      "åħ¬å¼ı": 6860,
      "æ¶Īæģ¯": 6861,
      "åĴĮåĪĨæŀĲ": 6862,
      "æĪĲç«ĭ": 6863,
      "ĠAdd": 6864,
      "[:": 6865,
      "perations": 6866,
      "ibility": 6867,
      "ä¸ĢåĪĩ": 6868,
      "ern": 6869,
      "æĺ¯å¦Ĥä½ķ": 6870,
      "å½ĵä»Ĭ": 6871,
      "filter": 6872,
      "scri": 6873,
      "Ġnames": 6874,
      "å®ļåĪ¶": 6875,
      "ä¸ľäº¬": 6876,
      "éģµå¾ª": 6877,
      "æĺ¯åĽłä¸º": 6878,
      "Entry": 6879,
      "é»ĳæļĹ": 6880,
      "parse": 6881,
      "å¾Īéļ¾": 6882,
      "çĥŃæĥħ": 6883,
      "åĽ¾ä¹¦é¦Ĩ": 6884,
      "cor": 6885,
      "çļĦåŃ¦ä¹ł": 6886,
      "åı¯ä»¥æĺ¯": 6887,
      "éħª": 6888,
      "duce": 6889,
      "çļĦçľ¼": 6890,
      "èµĭ": 6891,
      "Ġwant": 6892,
      "åħģè®¸": 6893,
      "čĊĠĠĠĠĠĠĠĠĠĠĠ": 6894,
      "åĴĮå·¥ä½ľ": 6895,
      "Ġow": 6896,
      "åĶ¯ä¸Ģ": 6897,
      "ãĤ": 6898,
      "ĠObject": 6899,
      "source": 6900,
      "èĢĢ": 6901,
      "ä¿¡åı·": 6902,
      "æ¸ħåįķ": 6903,
      "ä»¿ä½Ľ": 6904,
      "mit": 6905,
      "æĹ¥å¸¸çĶŁæ´»": 6906,
      "æĵİ": 6907,
      "äºİæĺ¯": 6908,
      "ä»¥ä¸ĭéĹ®é¢ĺ": 6909,
      "å¯¿åĳ½": 6910,
      "istance": 6911,
      "å°ĳå¹´": 6912,
      "ä¸ĢåĢĭ": 6913,
      "amb": 6914,
      "éĺĲ": 6915,
      "æ¶Ĥ": 6916,
      "æĶ¹ä¸º": 6917,
      "å°½å¿«": 6918,
      "################": 6919,
      "ffic": 6920,
      "Ġchange": 6921,
      "éĢıæĺİ": 6922,
      "ä¸¦": 6923,
      "æĪĳéĿŀå¸¸": 6924,
      "way": 6925,
      "æľīéĻĲ": 6926,
      "ä¼łéĢĴ": 6927,
      "èį¡": 6928,
      "Meta": 6929,
      "Ġç»Ļåĩºä¸Ģä¸ª": 6930,
      "æľīæľº": 6931,
      "çĶŁæĪĲæĳĺè¦ģ": 6932,
      "éĩĩåıĸè¡ĮåĬ¨": 6933,
      "Ġgover": 6934,
      "Ġ--": 6935,
      "éĹ»åĲį": 6936,
      "gen": 6937,
      "Ġconf": 6938,
      "åľ°éľĩ": 6939,
      "gress": 6940,
      "ĠName": 6941,
      "ä½łå¯¹": 6942,
      "ATE": 6943,
      "ç½ļ": 6944,
      "XXX": 6945,
      "æĢģåº¦": 6946,
      "ä¿®æŃ£": 6947,
      "åİĭåĬĽåĴĮ": 6948,
      "ä¹Į": 6949,
      "æĦŁåĴĮ": 6950,
      "å§ĵåĲį": 6951,
      "çļĦæĢģåº¦": 6952,
      "æ¯ıæ¬¡": 6953,
      "Ġprob": 6954,
      ")))": 6955,
      "èµĦéĩĳ": 6956,
      "çī¹åĪ«æĺ¯": 6957,
      "ta": 6958,
      "ins": 6959,
      "æĻ¯è§Ĥ": 6960,
      "çĽĹ": 6961,
      "åİ¿": 6962,
      "èŀįåĲĪ": 6963,
      "èķ´": 6964,
      "ä½łè§īå¾Ĺ": 6965,
      "å¹¶ç»Ļåĩº": 6966,
      "Ġstrings": 6967,
      "å¾·åĽ½": 6968,
      "Tra": 6969,
      "æĿ¥çľĭ": 6970,
      "åıĺéĿ©": 6971,
      "ML": 6972,
      "ä¸Ģèĩ´": 6973,
      "å¦Ĥæŀľä½łæĥ³": 6974,
      "æ¼ł": 6975,
      "åĿĩè¡¡": 6976,
      "åİĤ": 6977,
      "å°ıçļĦ": 6978,
      "Ġboth": 6979,
      "åı¯èĥ½ä¼ļå¯¼èĩ´": 6980,
      "çĮª": 6981,
      "ç®Ģä»ĭ": 6982,
      "æĺ¯ä¸ª": 6983,
      "çļĦçĻ": 6984,
      "å¿ĥçģµ": 6985,
      "èĬ±è´¹": 6986,
      "æİ¥çĿĢ": 6987,
      "Ġher": 6988,
      "åĮºåĪ«": 6989,
      "æĴŀ": 6990,
      "ĠErr": 6991,
      "æ°´ä¸Ń": 6992,
      "æĶ¯éĵħç¬Ķ": 6993,
      "è®²è¿°äºĨä¸Ģä¸ª": 6994,
      "opyright": 6995,
      "æĻºèĥ½åĮĸ": 6996,
      "æ´ĭèĳ±": 6997,
      "Ġver": 6998,
      "åĭ¤": 6999,
      "Provider": 7000,
      "èĬĤçĽ®": 7001,
      "éĤĢè¯·": 7002,
      "License": 7003,
      "ãĢĤ'": 7004,
      "ãĢĮ": 7005,
      "æĺ¯ä¸Ģé¡¹": 7006,
      "UN": 7007,
      "ä¸ĢçĤ¹": 7008,
      "å¼ķæĵİ": 7009,
      "ãĢį": 7010,
      "åĴĮæĬĢæľ¯": 7011,
      "è¯Ńæ³ķåĴĮ": 7012,
      "Ġsum": 7013,
      "è¯ĨåĪ«åĩº": 7014,
      "Ġthen": 7015,
      "ä¸īç§į": 7016,
      "è¿Ļåº§": 7017,
      "roid": 7018,
      "ä¸Ģçīĩ": 7019,
      "éĶģ": 7020,
      "åıĺéĩı": 7021,
      "äº¤éĢļå·¥åħ·": 7022,
      "åĢ¾åĲĳ": 7023,
      "æĸĩä¸Ń": 7024,
      "Ġsp": 7025,
      "è¦ĨçĽĸ": 7026,
      "Range": 7027,
      "æľīäºº": 7028,
      "çĥ¦": 7029,
      "Setting": 7030,
      "çīĽèĤī": 7031,
      "å°¼äºļ": 7032,
      "æĦıå¤§åĪ©éĿ¢": 7033,
      "çļĦè¯ĹæŃĮ": 7034,
      "æ®ĭ": 7035,
      "çļĦæ°´æŀľ": 7036,
      "\";": 7037,
      "ĠçĶ¨": 7038,
      "lower": 7039,
      "ä¼łç»ŁçļĦ": 7040,
      "éľĢè¦ģæ³¨æĦıçļĦæĺ¯": 7041,
      "76": 7042,
      "Iter": 7043,
      "ĠWIT": 7044,
      "åħĶåŃĲ": 7045,
      "åĩºçĶŁ": 7046,
      "////": 7047,
      "è¡¨æł¼": 7048,
      "å¹³æĸ¹": 7049,
      "Func": 7050,
      "æĢİä¹Īæł·": 7051,
      "çļĦç¾İå¥½": 7052,
      "çĻĮçĹĩ": 7053,
      "Ġurl": 7054,
      "uple": 7055,
      "æĥħæĦŁåĪĨç±»": 7056,
      "ĠVal": 7057,
      "æĶ¾å¼ĥ": 7058,
      "å°¼åħĭ": 7059,
      "åħ¶å®ŀ": 7060,
      "åģ·": 7061,
      "åı£è¯Ń": 7062,
      "éļıæľº": 7063,
      "åľ°çĲĥçļĦ": 7064,
      "Ġansw": 7065,
      "ployment": 7066,
      "\"ãĢĤ": 7067,
      "å¸Ń": 7068,
      "æłĩè®°": 7069,
      "Ġstream": 7070,
      "èĿ¶": 7071,
      "Ġsignificant": 7072,
      "ä¸įåĪ°": 7073,
      "Ġcommand": 7074,
      "åı¯ä»¥ä¸º": 7075,
      "Ġmsg": 7076,
      "oll": 7077,
      "Conf": 7078,
      "ä¸¹": 7079,
      "Ġtf": 7080,
      "è¿Ļä½į": 7081,
      "Ġpulumi": 7082,
      "æ°´åĴĮ": 7083,
      "CH": 7084,
      "rl": 7085,
      "åĽ½åĨħ": 7086,
      "è¿ĺèĥ½": 7087,
      "lements": 7088,
      "è¿ĻäºĽéĹ®é¢ĺ": 7089,
      "Link": 7090,
      "shot": 7091,
      "åįıä½ľ": 7092,
      "Ġspecified": 7093,
      "ç£ģ": 7094,
      "å¸¦æĿ¥çļĦ": 7095,
      "åĽĽä¸ª": 7096,
      "Ŀåįľ": 7097,
      "åĴĮæķ°æį®": 7098,
      "çĽ¸æ¯Ķ": 7099,
      "valu": 7100,
      "æĢİä¹ĪåĬŀ": 7101,
      "é½Ĳ": 7102,
      "body": 7103,
      "æĺ¯æĪĳä»¬": 7104,
      "è®¯": 7105,
      "Ġpost": 7106,
      "èº«ä½ĵåĴĮ": 7107,
      "private": 7108,
      "æ¯ıå¹´": 7109,
      "================": 7110,
      "ĠSe": 7111,
      "labels": 7112,
      "attr": 7113,
      "å¯Ĥ": 7114,
      "çļĦæĹ¥": 7115,
      "ĠCom": 7116,
      "Ġè¯·ç»ĻæĪĳ": 7117,
      "æĸ°éĹ»æĸĩç«ł": 7118,
      "èĭ±éĽĦ": 7119,
      "imum": 7120,
      "åıĤæķ°": 7121,
      "ä¼ĺåħĪ": 7122,
      "éĩĳå±ŀ": 7123,
      "åħĪè¿Ľ": 7124,
      "æ¼Ķè®²": 7125,
      "Ġimpact": 7126,
      "çļĦç¤¾äº¤": 7127,
      "Ġbec": 7128,
      "åĲįè¯įçŁŃè¯Ń": 7129,
      "ness": 7130,
      "Ġmat": 7131,
      "æľįè£ħ": 7132,
      "å±±èĦī": 7133,
      "Ġiter": 7134,
      "è¿Ļåľº": 7135,
      "å«Į": 7136,
      "method": 7137,
      "æİ¨èįĲä¸ĢäºĽ": 7138,
      "å¹¿æ³ĽåºĶçĶ¨": 7139,
      "å®ģéĿĻ": 7140,
      "require": 7141,
      "'),": 7142,
      "åĴĮé«ĺ": 7143,
      "asic": 7144,
      "éŁµ": 7145,
      "èĪĩ": 7146,
      "åıĳå±ķçļĦ": 7147,
      "lector": 7148,
      "batch": 7149,
      "ä¸¾åĬŀ": 7150,
      "å£ģ": 7151,
      "æ·±åĳ¼åĲ¸": 7152,
      "å¯Įæľī": 7153,
      "å¾Ģå¾Ģ": 7154,
      "çļĦæĸĩåĮĸ": 7155,
      "æıĲä¾ĽçļĦæĸĩæľ¬": 7156,
      "éĿŀæ´²": 7157,
      "æĽ´å¥½åľ°äºĨè§£": 7158,
      "éĢĹ": 7159,
      "device": 7160,
      "ä¿ĿçķĻ": 7161,
      "æĤ¨å¥½": 7162,
      "otal": 7163,
      "äººå·¥æĻºèĥ½çļĦåıĳå±ķ": 7164,
      "ç¼ĺ": 7165,
      "æĹħç¨ĭ": 7166,
      "çļĦæĬĢå·§": 7167,
      "posit": 7168,
      "CP": 7169,
      "é¦Ļæ¸¯": 7170,
      "é¦¨": 7171,
      "å¸¦æľī": 7172,
      "æĺĵäºİçĲĨè§£": 7173,
      "CON": 7174,
      "ĠAS": 7175,
      "å¨ľ": 7176,
      "Ġenvironment": 7177,
      "æļĹç¤º": 7178,
      "è¯·ç»ĻæĪĳ": 7179,
      "åģ¥åº·åĴĮ": 7180,
      "Ġobj": 7181,
      "åľ°ä½į": 7182,
      "æ¨¡ä»¿": 7183,
      "æµĭéĩı": 7184,
      "èħ»": 7185,
      "çľ¼çĿĽ": 7186,
      "æľºåĻ¨ç¿»è¯ĳ": 7187,
      "éĻ¤æŃ¤": 7188,
      "å¹¿æ³ĽçļĦåºĶçĶ¨": 7189,
      "åĩ¯": 7190,
      "alpha": 7191,
      "åį¢": 7192,
      "åľŁåľ°": 7193,
      "spec": 7194,
      "åŃĶ": 7195,
      "åĮĸåĲĪçī©": 7196,
      "åľºåĲĪ": 7197,
      "ä¸įä»ħä»ħ": 7198,
      "æĺ¯éĢļè¿ĩ": 7199,
      "AP": 7200,
      "æ»´": 7201,
      "tt": 7202,
      "éĿŀæ³ķ": 7203,
      "å¦¹": 7204,
      "Op": 7205,
      "book": 7206,
      "essages": 7207,
      "åı«åģļ": 7208,
      "guments": 7209,
      "ince": 7210,
      "ç¨®": 7211,
      "quence": 7212,
      "è¡¬": 7213,
      "è¯ķè¯ķ": 7214,
      "æļĤ": 7215,
      "åªļ": 7216,
      "è¹Ī": 7217,
      "æĦıè§ģ": 7218,
      "æİ¥è§¦": 7219,
      "æīĢè¿°": 7220,
      "æĴĴ": 7221,
      "Ġwhether": 7222,
      "eta": 7223,
      "è¾ŀ": 7224,
      "ived": 7225,
      "å¸®åĬ©ä½ł": 7226,
      "ä¾¿æį·": 7227,
      "Ġé¢ĺçĽ®": 7228,
      "åı¯ä»¥å¸®åĬ©æĪĳä»¬": 7229,
      "Ġvis": 7230,
      "files": 7231,
      "å¤¹": 7232,
      "è¦ģæ³¨æĦı": 7233,
      "etch": 7234,
      "è°ľ": 7235,
      "éĻ¤æŃ¤ä¹ĭå¤ĸ": 7236,
      "Tem": 7237,
      "anging": 7238,
      "ĠIS": 7239,
      "Ġheader": 7240,
      "dr": 7241,
      "ãĥ": 7242,
      "ination": 7243,
      "ç»Ĵ": 7244,
      "å¥½äºĨ": 7245,
      "post": 7246,
      "Kath": 7247,
      "æĪ·å¤ĸæ´»åĬ¨": 7248,
      "å¸Ĥä¸Ńå¿ĥ": 7249,
      "æľŁæľĽ": 7250,
      "è¿Ļæĺ¯åĽłä¸º": 7251,
      "Ġplay": 7252,
      "Ġinclud": 7253,
      "Ġpotential": 7254,
      "Namespace": 7255,
      "ç¥ŀç§ĺçļĦ": 7256,
      "å¿łè¯ļ": 7257,
      "è½¬åĮĸä¸º": 7258,
      "Bytes": 7259,
      "Sc": 7260,
      "utton": 7261,
      "æĸ¯åĿ¦": 7262,
      "Ġparameter": 7263,
      "mandu": 7264,
      "æ³¨æĦıåĬĽ": 7265,
      ",\"": 7266,
      "ä½łæľīä»Ģä¹Ī": 7267,
      "æķ°æį®çļĦ": 7268,
      "Kathmandu": 7269,
      "tal": 7270,
      "Ġå¸®æĪĳ": 7271,
      "ife": 7272,
      "85": 7273,
      "åŃ¦æľ¯": 7274,
      "Ġstrateg": 7275,
      "äºĨä»Ģä¹Ī": 7276,
      "æĮĩåįĹ": 7277,
      "çļĦå¥½å¤Ħ": 7278,
      "ä¸Ńå¤®": 7279,
      "ä¼ļåľ¨": 7280,
      "Def": 7281,
      "å¾ĭå¸Ī": 7282,
      "éĸĭ": 7283,
      "åº¦çļĦ": 7284,
      "pb": 7285,
      "ç»ĻäºĪ": 7286,
      "ä½Ĩå®ĥ": 7287,
      "Lock": 7288,
      "å¸½": 7289,
      "ç½ĳä¸Ĭ": 7290,
      "æĭ¼åĨĻéĶĻè¯¯": 7291,
      "mary": 7292,
      "è¿Ļéģĵ": 7293,
      "çĲĥåĳĺ": 7294,
      "é¢Ħè®¡": 7295,
      "åłĨ": 7296,
      "éŃħåĬĽ": 7297,
      "Producto": 7298,
      "\").": 7299,
      "ç²¾åĩĨ": 7300,
      "OT": 7301,
      "gine": 7302,
      "Integer": 7303,
      "èµĦæĸĻ": 7304,
      "å®ŀéĻħä¸Ĭ": 7305,
      "Format": 7306,
      "oProducto": 7307,
      "step": 7308,
      "é«Ķ": 7309,
      "æ½®æµģ": 7310,
      "æľ¬èº«": 7311,
      "çŃīæĸ¹å¼ı": 7312,
      "èįĴ": 7313,
      "åĩłå¹´": 7314,
      "ĠData": 7315,
      "'.": 7316,
      "å¹¶è¿Ľè¡Į": 7317,
      "åĪ¶æĪĲ": 7318,
      "å¼ºå¤§çļĦ": 7319,
      "æĩī": 7320,
      "ars": 7321,
      "æĮĸ": 7322,
      "åıĻ": 7323,
      "çļĦæĦŁåıĹ": 7324,
      "è¿Ĳè¾ĵ": 7325,
      "Connection": 7326,
      "çļĦæĶ¹": 7327,
      "Point": 7328,
      "ï¼ļ'": 7329,
      "æĿ¥æıĲé«ĺ": 7330,
      "åĪĨæĶ¯": 7331,
      "åĽŀå½Ĵ": 7332,
      "æ¡Ĩ": 7333,
      "å¤©ä½ĵ": 7334,
      "å¤ĸå¥Ĺ": 7335,
      "èıĩ": 7336,
      "ĠPath": 7337,
      "ãĢĤãĢĬ": 7338,
      "æıĲä¾ĽæĽ´": 7339,
      "Ġdown": 7340,
      "afe": 7341,
      "26": 7342,
      "ä¸Ńç«ĭ": 7343,
      "ç¤¾ä¼ļçļĦ": 7344,
      "éĶĢåĶ®é¢Ŀ": 7345,
      "è´¸æĺĵ": 7346,
      "ç¾½": 7347,
      "è¯¥æĸĩç«ł": 7348,
      "igned": 7349,
      "æĵħ": 7350,
      "å°ıé¸Ł": 7351,
      "ä¹Łåľ¨": 7352,
      "final": 7353,
      "åĲ¸æĶ¶": 7354,
      "éĸĵ": 7355,
      "dated": 7356,
      "ĊĊĠĠĠĠĠĠĠĠĠĠĠĠĠĠĠ": 7357,
      "Ġmain": 7358,
      "è¯·ç»ŃåĨĻ": 7359,
      "çĪ¸": 7360,
      "è¿ĺæľīåħ¶ä»ĸ": 7361,
      "anch": 7362,
      "éĿ¢è¯ķ": 7363,
      "Ġcr": 7364,
      "é¢Ħè®¢": 7365,
      "å¿ĥçĲĨåŃ¦": 7366,
      "åı¯ä»¥çĶ¨äºİ": 7367,
      "æľĪçĲĥ": 7368,
      "å¤ªç©ºæİ¢ç´¢": 7369,
      "Buffer": 7370,
      "æĸĩæ¡£": 7371,
      "é¢Ī": 7372,
      "ides": 7373,
      "Ġsentence": 7374,
      "Ġwell": 7375,
      "å§ĭç»Ī": 7376,
      "ignore": 7377,
      "çļĦé¦ĸ": 7378,
      "çļĦä»·æł¼": 7379,
      "æ¼ı": 7380,
      "Ġdel": 7381,
      "ç§ĳæĬĢçļĦ": 7382,
      "æľīå®³": 7383,
      "ingle": 7384,
      "å°ıçĮ«": 7385,
      "ä¸īè§Ĵ": 7386,
      "èĦĨ": 7387,
      "æī©å±ķ": 7388,
      "çļĦçĭ¬": 7389,
      "çļĦç¨ĭ": 7390,
      "èĪŀè¹Ī": 7391,
      "å½ĵä½ł": 7392,
      "æĶ¿æ²»": 7393,
      "åıĹæ¬¢è¿İçļĦ": 7394,
      "çģ«æĺŁ": 7395,
      "æł¸å¿ĥ": 7396,
      "GPTæ¨¡åŀĭ": 7397,
      "Tag": 7398,
      "atform": 7399,
      "æĪĳå¯¹": 7400,
      "æĪĳå·²ç»ı": 7401,
      "çİ»": 7402,
      "ç¨į": 7403,
      "åĽŀåĪ°": 7404,
      "AIè¯Ńè¨Ģæ¨¡åŀĭ": 7405,
      "Ġpartic": 7406,
      "ividual": 7407,
      "--------------------------------": 7408,
      "Job": 7409,
      "æ¬º": 7410,
      "æĬķåħ¥": 7411,
      "å¼Ĥå¸¸": 7412,
      "ormal": 7413,
      "split": 7414,
      "æĮĳ": 7415,
      "äººå¿ĥ": 7416,
      "å¸®æĪĳæĥ³": 7417,
      "éĻ¤æ³ķ": 7418,
      "Ġanswer": 7419,
      "çļĦä¹¦": 7420,
      "Ġdevice": 7421,
      "åĴĮæĥħæĦŁ": 7422,
      "çĮľ": 7423,
      "\")).": 7424,
      "Que": 7425,
      "æĢĸ": 7426,
      "æĸ°äº§åĵģ": 7427,
      "åı¯èĥ½çļĦ": 7428,
      "html": 7429,
      "å¯¼èĩ´äºĨ": 7430,
      "ĠANY": 7431,
      "ä¼ļå¯¹": 7432,
      "Ġduring": 7433,
      "fectoProducto": 7434,
      "Ġfilter": 7435,
      "éĢļå¸¸æĺ¯": 7436,
      "Ġarray": 7437,
      "internal": 7438,
      "ä¸įåĨį": 7439,
      "çļĦæ¸ħ": 7440,
      "åı¯èĥ½éľĢè¦ģ": 7441,
      "çĥŃéĩı": 7442,
      "gin": 7443,
      "ĠAsia": 7444,
      "Ret": 7445,
      "Work": 7446,
      "ç»ĦæĪĲéĥ¨åĪĨ": 7447,
      "Ġax": 7448,
      "çī¹æĢ§": 7449,
      "Ġfact": 7450,
      "Ġ\"/": 7451,
      "çļĦæĥħèĬĤ": 7452,
      "åłµ": 7453,
      "å¥¥è¿Ĳ": 7454,
      "break": 7455,
      "åı¯ä»¥å°Ŀè¯ķ": 7456,
      "åĲİæŀľ": 7457,
      "è¿Ļä¹Ī": 7458,
      "è¿Ļä»½": 7459,
      "exp": 7460,
      "Priv": 7461,
      "çĴĥ": 7462,
      "ä½©": 7463,
      "çļĦè¿ĩç¨ĭä¸Ń": 7464,
      "åĲĪå¹¶": 7465,
      "è£Ĥ": 7466,
      "è¯·ç»ŃåĨĻä»ĸä»¬çļĦå¯¹è¯ĿåĨħå®¹": 7467,
      "çħİ": 7468,
      "éĿ©åĳ½": 7469,
      "äººå·¥æĻºèĥ½åľ¨åĮ»çĸĹé¢ĨåŁŁ": 7470,
      "Ġensure": 7471,
      "Ġ\"\",": 7472,
      "assword": 7473,
      "Ġmaint": 7474,
      "è°¨": 7475,
      "åħ¨åĽ½": 7476,
      "çªģåĩº": 7477,
      "æ¨¡æĭŁäººç±»": 7478,
      "çļĦçĬ¶": 7479,
      "ç®ĢåĮĸ": 7480,
      "æ¿ĢåĬ±": 7481,
      "EfectoProducto": 7482,
      "cache": 7483,
      "ln": 7484,
      "Exec": 7485,
      "36": 7486,
      "åıĳéĢģ": 7487,
      "åİĨåı²ä¸Ĭ": 7488,
      "pache": 7489,
      "æĺ¯äººç±»": 7490,
      "å¤§åľ°": 7491,
      "æĸĩæľ¬éĶĻè¯¯": 7492,
      "æĿĲè´¨": 7493,
      "çļĦæķĪæŀľ": 7494,
      "æµħ": 7495,
      "éĢļä¿¡": 7496,
      "çĥŃéĹ¨": 7497,
      "ç¶ĵ": 7498,
      "åĽŀå¤į": 7499,
      "çĪ±çļĦ": 7500,
      "çİ¯ä¿ĿæĦıè¯Ĩ": 7501,
      "Ġrole": 7502,
      "cy": 7503,
      "lice": 7504,
      "æĭĤ": 7505,
      "Aut": 7506,
      "oot": 7507,
      "æīĵéĢł": 7508,
      "åĮĹæŀģ": 7509,
      "'])": 7510,
      "æ¯ıäºº": 7511,
      "ather": 7512,
      "ĠHere": 7513,
      "tributes": 7514,
      "Types": 7515,
      "æĪĳå»ºè®®": 7516,
      "ä¾£": 7517,
      "Ġtop": 7518,
      "è®¾å®ļ": 7519,
      "çİ°åľ¨è¯·ä½ł": 7520,
      "vc": 7521,
      "27": 7522,
      "è¿Ļè¡¨æĺİ": 7523,
      "æĪĲä¸Ģä¸ª": 7524,
      "iple": 7525,
      "éħįæĸĻ": 7526,
      "Ġwithout": 7527,
      "poch": 7528,
      "Ġconsider": 7529,
      "command": 7530,
      "ox": 7531,
      "åı¯ä»¥ä»İ": 7532,
      "åįıè®®": 7533,
      "æĸĩç«łåĨħå®¹": 7534,
      "Ġimplement": 7535,
      "Ġisinstance": 7536,
      "ĠWAR": 7537,
      "åĩĨç¡®çļĦ": 7538,
      "ci": 7539,
      "æĪĳæİ¨èįĲ": 7540,
      "äººå·¥æĻºèĥ½çļĦåºĶçĶ¨": 7541,
      "çļĦç¾İä¸½": 7542,
      "Location": 7543,
      "çļĦæĳĦåħ¥": 7544,
      "uction": 7545,
      "ä»ģ": 7546,
      "etime": 7547,
      "Ġstore": 7548,
      "åĴĮå»ºè®®": 7549,
      "lot": 7550,
      "åĲĪæ³ķ": 7551,
      "æ¶¯": 7552,
      "Ġdepend": 7553,
      "çļĦæ¢¦æĥ³": 7554,
      "èĥ½ä¸įèĥ½": 7555,
      "imal": 7556,
      "èµ·æºĲ": 7557,
      "èº«è¾¹": 7558,
      "åĭĥ": 7559,
      "Entity": 7560,
      "assertions": 7561,
      "å®¶æĹı": 7562,
      "keep": 7563,
      "åį³å°Ĩ": 7564,
      "è¡¨çİ°åĩº": 7565,
      "HTTPResponse": 7566,
      "åıĹä¼¤": 7567,
      "çĶ»éĿ¢": 7568,
      "çļĦæķĻèĤ²": 7569,
      "Next": 7570,
      "åľ°åĽ¾": 7571,
      "åŃ©åŃĲä»¬": 7572,
      "æľīäºĽäºº": 7573,
      "Document": 7574,
      "_,": 7575,
      "å°ıçİĭ": 7576,
      "åĨłåĨĽ": 7577,
      "ç½©": 7578,
      "å½¢çļĦ": 7579,
      "Ġapplic": 7580,
      "Ġpres": 7581,
      "æľºéģĩ": 7582,
      "åĪ¶åĵģ": 7583,
      "çĸ²åĬ³": 7584,
      "å¤ıæĹ¥": 7585,
      "aws": 7586,
      "ä¸Ģéģĵ": 7587,
      "æĸĩæľ¬è¿Ľè¡Į": 7588,
      "éĩĮæľī": 7589,
      "çļĦæ°ĽåĽ´": 7590,
      "framework": 7591,
      "over": 7592,
      "ords": 7593,
      "EOF": 7594,
      "has": 7595,
      "Ġmy": 7596,
      "å¾ĪæĬ±æŃī": 7597,
      "æķĻå¸Ī": 7598,
      "bs": 7599,
      "names": 7600,
      "ĠĠĠĠĠĠĠĠĠĠ": 7601,
      "è§£çŃĶ": 7602,
      "Ag": 7603,
      "æķ°ä¸º": 7604,
      "æ°ĳæĹı": 7605,
      "ĠRequired": 7606,
      "Ġdr": 7607,
      "æ¤ħ": 7608,
      "çģ«è½¦": 7609,
      "æĹ¥å¸¸çĶŁæ´»ä¸Ń": 7610,
      "çļĦè¯Ŀé¢ĺ": 7611,
      "ç¨¿": 7612,
      "Ġä»ĸ": 7613,
      "å°ıåŀĭ": 7614,
      "éĥ½èĥ½": 7615,
      "ias": 7616,
      "çĶŁåĬ¨": 7617,
      "issing": 7618,
      "å®īéĿĻ": 7619,
      "Listener": 7620,
      "è¯ĬæĸŃåĴĮæ²»çĸĹ": 7621,
      "æĶ¾æĿ¾èº«å¿ĥ": 7622,
      "Ġdevelop": 7623,
      "éªĳèĩªè¡Įè½¦": 7624,
      "Ġcur": 7625,
      "Ġjob": 7626,
      "SC": 7627,
      "2022": 7628,
      "ç´§æĢ¥": 7629,
      "æĦŁæ¿Ģ": 7630,
      "ç©·": 7631,
      "å¤±æľĽ": 7632,
      "å¿ĺè®°": 7633,
      "éī": 7634,
      "ä»¥åħ¶": 7635,
      "Ġthrow": 7636,
      "Ġart": 7637,
      "/{": 7638,
      "ä¸įå¾Ĺ": 7639,
      "éĩįéĩı": 7640,
      "æ°§æ°Ķ": 7641,
      "Ġbecause": 7642,
      "job": 7643,
      "Session": 7644,
      "ãĢĤâĢľ": 7645,
      "ĠĠĠĠĠĠĠĠĠĠĠĠ": 7646,
      "ä¸Ĭæľī": 7647,
      "å¼Ģå±ķ": 7648,
      "Act": 7649,
      "hash": 7650,
      "ä½Ĩåľ¨": 7651,
      "ĠiNdEx": 7652,
      "çĶ³è¯·": 7653,
      "08": 7654,
      "Ph": 7655,
      "ä¼ļæľī": 7656,
      "**:": 7657,
      "è¡Ģåİĭ": 7658,
      "Ġindividual": 7659,
      "èĩªåĬ¨é©¾é©¶æ±½è½¦": 7660,
      "åı¯è¡Į": 7661,
      "å¯ĵ": 7662,
      "å¿ĥä¸Ń": 7663,
      "è¿ľç¨ĭ": 7664,
      "äºļæ´²": 7665,
      "éªĹ": 7666,
      "ä¸¤ä¸ªäºº": 7667,
      "é¹ħ": 7668,
      "çİ»çĴĥ": 7669,
      "æīĵç®Ĺ": 7670,
      "ä¸įå¥½": 7671,
      "çŃīæĬĢæľ¯": 7672,
      "imension": 7673,
      "æ¢°": 7674,
      "æľĹçİĽ": 7675,
      "çļĦæĢ§èĥ½": 7676,
      "åİ¨æĪ¿": 7677,
      "ç©ĨæľĹçİĽ": 7678,
      "çļĦæŃ¥éª¤": 7679,
      "ster": 7680,
      "edia": 7681,
      "çº¦ä¸º": 7682,
      "æĪª": 7683,
      "zure": 7684,
      "äººåĴĮ": 7685,
      "äººéĻħ": 7686,
      "éĵº": 7687,
      "åįĩé«ĺ": 7688,
      "æ¿Ģåıĳ": 7689,
      "ĠReturns": 7690,
      "åıĮæĸ¹": 7691,
      "\"}": 7692,
      "Ġsearch": 7693,
      "matches": 7694,
      "ĠException": 7695,
      "æľĢéĩįè¦ģçļĦ": 7696,
      "ä½ĵç³»": 7697,
      "çģµæĦŁ": 7698,
      "æĿ¥çļĦ": 7699,
      "åİŁåı¥": 7700,
      "mail": 7701,
      "å¤įæĿĤçļĦ": 7702,
      "çļĦæĬķèµĦ": 7703,
      "ĠçĶŁæĪĲä¸Ģä¸ª": 7704,
      "åŃ¦èĢħ": 7705,
      "Ġchallen": 7706,
      "Ġtoken": 7707,
      "åİ»å¹´": 7708,
      "è·Łè¸ª": 7709,
      "ç»ĻæĤ¨": 7710,
      "æ»ļ": 7711,
      "Ġobt": 7712,
      "napshot": 7713,
      "mock": 7714,
      "ä»¥æıĲé«ĺ": 7715,
      "å¤ļåħĥ": 7716,
      "find": 7717,
      "Ġinit": 7718,
      "éļ¾å¿ĺ": 7719,
      "ç»Īäºİ": 7720,
      "ĠAuthentic": 7721,
      "éĩİçĶŁåĬ¨çī©": 7722,
      "æĺ¯ç¾İåĽ½": 7723,
      "ety": 7724,
      "orest": 7725,
      "æĺİåªļ": 7726,
      "Ġbefore": 7727,
      "gy": 7728,
      "hed": 7729,
      "èĬĤèĥ½": 7730,
      "çļĦæĶ¶": 7731,
      "equals": 7732,
      "åģļæ³ķ": 7733,
      "Unexpected": 7734,
      "sm": 7735,
      "æ³ī": 7736,
      "Ġfiles": 7737,
      "æĭĸ": 7738,
      "æĪĳä»¬å¿ħé¡»": 7739,
      "Ġdf": 7740,
      "æ¯Ķåĸ»": 7741,
      "æĪĳå¸ĮæľĽ": 7742,
      "è¡ĵ": 7743,
      "çļĦæ¤": 7744,
      "Ġunique": 7745,
      "ç©¿è¶Ĭ": 7746,
      "DB": 7747,
      "æĥ§": 7748,
      "æīĭè¡¨": 7749,
      "æħĪ": 7750,
      "åįıåĬ©": 7751,
      "æĪĳåĢĳ": 7752,
      "åĮĸçŁ³": 7753,
      "idget": 7754,
      "çļĦåĬĽéĩı": 7755,
      "åĴĮäººç±»": 7756,
      "çĶ¨éĢĶ": 7757,
      "çĽĪ": 7758,
      "ä»¥ä¸ĭåĩłä¸ª": 7759,
      "Line": 7760,
      "ads": 7761,
      "ä¸ªæľĪ": 7762,
      "Ġstack": 7763,
      "Ġsuccess": 7764,
      "Close": 7765,
      "ED": 7766,
      "sk": 7767,
      "æĹ±": 7768,
      "èĢĮä¸į": 7769,
      "å¾Īæ£Ĵ": 7770,
      "åĪ¶åº¦": 7771,
      "Reference": 7772,
      "pare": 7773,
      "/*": 7774,
      "éĢīæĭ©ä¸Ģä¸ª": 7775,
      "åı¯ä»¥å¸®åĬ©ä½ł": 7776,
      "Ġdocument": 7777,
      "ç©ĨæľĹçİĽå³°": 7778,
      "ending": 7779,
      "`.": 7780,
      "level": 7781,
      "çľŁæĺ¯": 7782,
      "null": 7783,
      "ceSend": 7784,
      "åĬŀåħ¬å®¤": 7785,
      "ceSendFields": 7786,
      "çļĦåĲįåŃĹ": 7787,
      "å¤§è§Ħæ¨¡": 7788,
      "nodes": 7789,
      "éģ¥": 7790,
      "åħ¨çĲĥèĮĥåĽ´åĨħ": 7791,
      "Project": 7792,
      "æĴĳ": 7793,
      "Ġ?": 7794,
      "ç§Ĵ": 7795,
      "å¦Ĩ": 7796,
      "mem": 7797,
      "Ġ[]*": 7798,
      "è°·æŃĮ": 7799,
      "Pa": 7800,
      "ersist": 7801,
      "ĠApache": 7802,
      "ĠCopyright": 7803,
      "çº¢èī²çļĦ": 7804,
      "Ġneg": 7805,
      "æįŁå¤±": 7806,
      "att": 7807,
      "åĪ©æ¶¦": 7808,
      "æħİ": 7809,
      "åİŁå§ĭæĸĩæľ¬": 7810,
      ")(": 7811,
      "Ġexp": 7812,
      "position": 7813,
      "åĹ¯": 7814,
      "åľ°åĿĢ": 7815,
      "Ġinitial": 7816,
      "éľį": 7817,
      "çļĦç´": 7818,
      "ffect": 7819,
      "imes": 7820,
      "æıĲåīį": 7821,
      "çĸ¼": 7822,
      "æ¸ħæ¥ļ": 7823,
      "æĸľ": 7824,
      "enu": 7825,
      "Ġmock": 7826,
      "æĪĲåĬŁåľ°": 7827,
      "1000": 7828,
      "39": 7829,
      "æī«": 7830,
      "æľºåľº": 7831,
      "ä¹ĭæĹħ": 7832,
      "äºĭé¡¹": 7833,
      "å¾Īå¿«": 7834,
      "Ġ['": 7835,
      "åĪĽéĢłåĬĽ": 7836,
      "åıł": 7837,
      "çĲĨæĥ³": 7838,
      "é«ĺè´¨éĩı": 7839,
      "å¹¿æ³ĽçļĦ": 7840,
      "å®¾è¯Ń": 7841,
      "ä¸įèµ·": 7842,
      "çŃīåĽłç´ł": 7843,
      "èĥ½å¤Łåľ¨": 7844,
      "æĹ©æľŁ": 7845,
      "é¹¿": 7846,
      "CEN": 7847,
      "å®ļä½į": 7848,
      "éĿ¢ä¸Ĭ": 7849,
      "çĲĨçĶ±": 7850,
      "Ġhealth": 7851,
      "é¥®é£Łä¹łæĥ¯": 7852,
      "Ġdouble": 7853,
      "æĻ´æľĹ": 7854,
      "èī³": 7855,
      "Ġproto": 7856,
      "rypt": 7857,
      "åĮħå®¹": 7858,
      "Ġ>>>": 7859,
      "ä¸Ģå®ļçļĦ": 7860,
      "è¼": 7861,
      "å¤§è±¡": 7862,
      "äº«çĶ¨": 7863,
      "Ġappe": 7864,
      "Network": 7865,
      "schema": 7866,
      "è¾Ľ": 7867,
      "æľĢå¤ļ": 7868,
      "çĲĨå¿µ": 7869,
      "pository": 7870,
      "å®ĥåľ¨": 7871,
      "ively": 7872,
      "ä¹Ĳè¶£": 7873,
      "æ¶ĪéĻ¤": 7874,
      "å°ĸ": 7875,
      "struction": 7876,
      "çłĶç©¶äººåĳĺ": 7877,
      "æĶ¹åıĺäºĨ": 7878,
      "éĤ¦": 7879,
      "Ġ100": 7880,
      "ç²¾åĬĽ": 7881,
      "mer": 7882,
      "å¼¦": 7883,
      "æ¯ģ": 7884,
      "èµ¶": 7885,
      "åħ³éĹŃ": 7886,
      "olve": 7887,
      "ĠWARRAN": 7888,
      "å¹¶è§£éĩĬ": 7889,
      "ä¸ªä½ĵ": 7890,
      "è¿ĻäºĽä¿¡æģ¯": 7891,
      "æķĻåŃ¦": 7892,
      "çļĦçģµ": 7893,
      "éī´": 7894,
      "Tx": 7895,
      "vers": 7896,
      "æĪĳä¸įèĥ½": 7897,
      "ä¹ŁéĿŀå¸¸": 7898,
      "æŁĲç§į": 7899,
      "cd": 7900,
      "åı¯ä»¥å¾ĹåĪ°": 7901,
      "ä½ĵçİ°": 7902,
      "è¯Ńä¹ī": 7903,
      "ä»Ĭå¤©å¤©æ°Ķ": 7904,
      "æĳĦæ°ı": 7905,
      "tual": 7906,
      "atetime": 7907,
      "rics": 7908,
      "æķ°åŃĹåĮĸ": 7909,
      "èĩªçĦ¶çİ¯å¢ĥ": 7910,
      "åľ¨è¿Ļä¸ªåı¥åŃĲä¸Ń": 7911,
      "TH": 7912,
      "åĴĮä¸ªäºº": 7913,
      "å·¥ä½ľæķĪçİĩ": 7914,
      "çĽ¸åħ³ä¿¡æģ¯": 7915,
      "Per": 7916,
      "Ġå¯¹äºİ": 7917,
      "åįĵ": 7918,
      "èµİ": 7919,
      "éĻ¶": 7920,
      "çıłç©ĨæľĹçİĽå³°": 7921,
      "Ġcolumn": 7922,
      "åįĹæŀģ": 7923,
      "localVar": 7924,
      "éĢĹåı·": 7925,
      "åľ¨éĤ£éĩĮ": 7926,
      "Ġhost": 7927,
      "åİŁåŃĲ": 7928,
      "å°Ĭæķ¬çļĦ": 7929,
      "::": 7930,
      "Ġæĸĩæľ¬": 7931,
      "ĸæģ¯": 7932,
      "åĴĮæĹ¶éĹ´": 7933,
      "ĠVersion": 7934,
      "åģıè§ģ": 7935,
      "æ¯ıåĳ¨": 7936,
      "æĿ°åħĭ": 7937,
      "Ġagre": 7938,
      "Pref": 7939,
      "iag": 7940,
      "come": 7941,
      "TIONS": 7942,
      "cheduled": 7943,
      "EL": 7944,
      "ï¼ģâĢĿ": 7945,
      "Ġè¯·æıĲåıĸ": 7946,
      "æľįåĬ¡åĳĺ": 7947,
      "Ċĉĉĉĉĉĉĉĉĉĉ": 7948,
      "ĠCont": 7949,
      "æĪĺçķ¥": 7950,
      "XXXXXXXX": 7951,
      "çĶ·å£«": 7952,
      "Hash": 7953,
      "æĦĪ": 7954,
      "äºļé©¬": 7955,
      "istry": 7956,
      "å½»": 7957,
      "æķ°çĻ¾": 7958,
      "åĬ£": 7959,
      "å¾Īä¸įéĶĻ": 7960,
      "æ¡Īä¾ĭ": 7961,
      "å±ıå¹ķ": 7962,
      "ä¸Ģåı¥": 7963,
      "ĠUse": 7964,
      "Ġrepresent": 7965,
      "éĹľ": 7966,
      "Ġcatch": 7967,
      "Ġrece": 7968,
      "å®īåħ¨åĴĮ": 7969,
      "ç¾İåĳ³çļĦ": 7970,
      "åĸľæ¬¢çļĦ": 7971,
      "å¯ĮåĲ«": 7972,
      "çļĦæ²ŁéĢļ": 7973,
      "Ġour": 7974,
      "é¢Ŀå¤ĸ": 7975,
      "amples": 7976,
      "åī²": 7977,
      "é¢ĨåŁŁçļĦåºĶçĶ¨": 7978,
      "å¯ĴåĨ·": 7979,
      "åİĨç¨ĭ": 7980,
      "éĩİé¤Ĳ": 7981,
      "wait": 7982,
      "Ġport": 7983,
      "ä¸ŃçļĦåħ³éĶ®è¯į": 7984,
      "æııè¿°ä¸Ģä¸ĭ": 7985,
      "doc": 7986,
      "éĻĮ": 7987,
      "acket": 7988,
      "åı¤åħ¸": 7989,
      "æ³°åĿ¦": 7990,
      "çĽ¸åºĶçļĦ": 7991,
      "Ġwriting": 7992,
      "æľīæĦıä¹ī": 7993,
      "pliance": 7994,
      "69": 7995,
      "MO": 7996,
      "åļ": 7997,
      "åıĳåĩº": 7998,
      "igr": 7999,
      "èĥ¡èĲ": 8000,
      "åĩºçİ°äºĨ": 8001,
      "èĥ¡èĲĿåįľ": 8002,
      "rt": 8003,
      "å±Ĥæ¬¡": 8004,
      "äºļé©¬éĢĬ": 8005,
      "æµ´": 8006,
      "aph": 8007,
      "éķ¿åŁİ": 8008,
      "enses": 8009,
      "address": 8010,
      "åĴĮçİ¯å¢ĥ": 8011,
      "arge": 8012,
      "éĺĲè¿°": 8013,
      ".(": 8014,
      "lish": 8015,
      "ä½ľä¸ļ": 8016,
      "æ¢¨": 8017,
      "åįıè°ĥ": 8018,
      "Be": 8019,
      "æ°ĽåĽ´": 8020,
      "æ´»åĬĽ": 8021,
      "çĳ°": 8022,
      "åĴĮç®¡çĲĨ": 8023,
      "æĿ¥åĪ°": 8024,
      "ross": 8025,
      "æĽ´æĶ¹": 8026,
      "author": 8027,
      "Target": 8028,
      "åľ¨æŃ¤": 8029,
      "hes": 8030,
      "ä¼Ĺå¤ļ": 8031,
      "éĢłæĪĲäºĨ": 8032,
      "ĠCreate": 8033,
      "è¿ĲåĬ¨åĳĺ": 8034,
      "Length": 8035,
      "Ġtotal": 8036,
      "keys": 8037,
      "ä¸įå°ĳ": 8038,
      "Ġwater": 8039,
      "æŃ¥è¡Į": 8040,
      "ä¸ŃåĽ½çļĦ": 8041,
      "è®°å¾Ĺ": 8042,
      "invalid": 8043,
      ")).": 8044,
      "ä¼ĺç§ĢçļĦ": 8045,
      "ä¼ı": 8046,
      "ç³Ĭ": 8047,
      "Ġwithin": 8048,
      "èĤīç±»": 8049,
      "éŃĤ": 8050,
      "åĸ·": 8051,
      "location": 8052,
      "å½ĵåľ°çļĦ": 8053,
      "ead": 8054,
      "è«": 8055,
      "åŃĻ": 8056,
      "ä»£æĽ¿": 8057,
      "åį±å®³": 8058,
      "è°¢è°¢ä½ł": 8059,
      "å°¼åħĭåı·": 8060,
      "Ġschema": 8061,
      "çº¢æ¥¼": 8062,
      "æİ¥ç§į": 8063,
      "æľĢè¿ĳçļĦ": 8064,
      "xx": 8065,
      "çĽĨ": 8066,
      "å¤Ħäºİ": 8067,
      "åĮºåĿĹéĵ¾æĬĢæľ¯": 8068,
      "Empty": 8069,
      "ä¹Ļ": 8070,
      "åľ¨æĪĳ": 8071,
      "ä¿Ħ": 8072,
      "é¼»": 8073,
      "aterial": 8074,
      "Marshal": 8075,
      "volume": 8076,
      "æĪĳè¦ģ": 8077,
      "Ġæł¹æį®ç»Ļå®ļçļĦæĸĩæľ¬": 8078,
      "è¿Ļä¹Ł": 8079,
      "61": 8080,
      "ä¸ºä¸»": 8081,
      "ç¾İæĻ¯": 8082,
      "æľªæĿ¥åıĳå±ķ": 8083,
      "åįİçĽĽ": 8084,
      "NAME": 8085,
      "åĩºåıĳ": 8086,
      "çĶŁæ´»çļĦ": 8087,
      "logy": 8088,
      "Ġprotected": 8089,
      "ä¼Ĳ": 8090,
      "é¥±": 8091,
      "Ġgre": 8092,
      "å¦»": 8093,
      "Addr": 8094,
      "Mode": 8095,
      "å±ħä½ı": 8096,
      "âĢ¦âĢ¦": 8097,
      "çİ°åľº": 8098,
      "æĵħéķ¿": 8099,
      "è¿ĩäºİ": 8100,
      "è¶ħçº§": 8101,
      "åŁºäºİä»¥ä¸Ĭ": 8102,
      "å¤º": 8103,
      "ä¸įç¡®å®ļ": 8104,
      "éĽķ": 8105,
      "Ġproperty": 8106,
      ")),": 8107,
      "parser": 8108,
      "è¿Ī": 8109,
      "æ¡Īä»¶": 8110,
      "å¼ķå¯¼": 8111,
      "èĸ¯": 8112,
      "oice": 8113,
      "å¯º": 8114,
      "aring": 8115,
      "Ġsort": 8116,
      "Device": 8117,
      "ä¼ŀ": 8118,
      "æ³½": 8119,
      "ambda": 8120,
      "æ³°åĿ¦å°¼åħĭåı·": 8121,
      "è¯·ä»İ": 8122,
      "ç²¾å½©": 8123,
      "æĦŁçŁ¥": 8124,
      "æ¦Ħ": 8125,
      "jang": 8126,
      "æĶ¹æŃ£": 8127,
      "ULT": 8128,
      "åįİçĽĽé¡¿": 8129,
      "æīİ": 8130,
      "Ġdeterm": 8131,
      "æĻ¶": 8132,
      "Ġmanag": 8133,
      "å¤©æ°Ķé¢ĦæĬ¥": 8134,
      "Account": 8135,
      "å®¶åĽŃ": 8136,
      "Ġobtain": 8137,
      "è¾£æ¤Ĵ": 8138,
      "Ġproperties": 8139,
      "æĪĺæĸĹ": 8140,
      "ç«ĭåį³": 8141,
      "ä¸ĸçķĮåĲĦåľ°": 8142,
      "ism": 8143,
      "åĸľåī§": 8144,
      "å·²çŁ¥": 8145,
      "Ġexec": 8146,
      "çĩ¥": 8147,
      "åĬłçĥŃ": 8148,
      "ationship": 8149,
      "èĢģé¼ł": 8150,
      "çī¹å®ļçļĦ": 8151,
      "Ħæ¦Ħ": 8152,
      "çĭ¼": 8153,
      "è¡Ģç®¡": 8154,
      "æµĵéĥģ": 8155,
      "clude": 8156,
      "èģĮåľº": 8157,
      "éĢļçŁ¥": 8158,
      "Ġsee": 8159,
      "åıĹä¼Ĺ": 8160,
      "Ġcontrib": 8161,
      "Suppression": 8162,
      "ym": 8163,
      "æ³¥": 8164,
      "æľ¯è¯Ń": 8165,
      "çļĦçĹħ": 8166,
      "ĠÃ·": 8167,
      "ounter": 8168,
      "ç½²": 8169,
      "Ġenc": 8170,
      "Configuration": 8171,
      "dk": 8172,
      "çĥĤ": 8173,
      "æıĲåĪ°çļĦ": 8174,
      "åĮ»çĸĹè¡Įä¸ļ": 8175,
      "è´¢å¯Į": 8176,
      "æĪĳè¿ĺ": 8177,
      "çĶ¨åĵģ": 8178,
      "Ġpod": 8179,
      "çĭ®åŃĲ": 8180,
      "asses": 8181,
      "è¿Ļä¸ªäºº": 8182,
      "CENSE": 8183,
      "72": 8184,
      "äº¦": 8185,
      "ä¸ĬäºĨ": 8186,
      "\\\\": 8187,
      "æĸĳ": 8188,
      "çļĦæ¡": 8189,
      "æĹłè®ºæĺ¯": 8190,
      "å·¾": 8191,
      "(\"%": 8192,
      "çļĦæİ¢": 8193,
      "åįļå®¢": 8194,
      "æĭĽèģĺ": 8195,
      "Ġfollowing": 8196,
      "åľ¨è¿Ļç§į": 8197,
      "Ġfin": 8198,
      "çĶµåĻ¨": 8199,
      "ä¸Ģèµ·åİ»": 8200,
      "çļĦå£°éŁ³": 8201,
      "inary": 8202,
      "ä¸¤äºº": 8203,
      "Ġhum": 8204,
      "ç»¼ä¸Ĭ": 8205,
      "tag": 8206,
      "Ġcommon": 8207,
      "Ġtho": 8208,
      "èĭ¹æŀľåħ¬åı¸": 8209,
      "çļĦæķ°åŃĹ": 8210,
      "å¾®é£İ": 8211,
      "2019": 8212,
      "æĸ°æĬĢæľ¯": 8213,
      "Ġses": 8214,
      "ĠæıĲä¾Ľ": 8215,
      "åľ°çĲĨ": 8216,
      "éĽ¾": 8217,
      "æĻļé¤Ĳ": 8218,
      "çº¢æ¥¼æ¢¦": 8219,
      "æĪĳæĺ¨å¤©": 8220,
      "æ¸©é¦¨": 8221,
      "çĥŃçĪ±": 8222,
      "æĻ®åıĬ": 8223,
      "æ¯ķä¸ļ": 8224,
      "å»ºéĢł": 8225,
      "fact": 8226,
      "TIES": 8227,
      "items": 8228,
      "åĨĮ": 8229,
      "æĮĸæİĺ": 8230,
      "ä¸įå¤Ł": 8231,
      "èĢĮéĹ»åĲį": 8232,
      "èħ°": 8233,
      "åĴĮçĲĨè§£": 8234,
      "å°ıæĺİçļĦ": 8235,
      "ç²¾ç¡®": 8236,
      "Ġcluster": 8237,
      "ç®ĢçŁŃçļĦ": 8238,
      "Ġmodels": 8239,
      "æĭĴ": 8240,
      "Initial": 8241,
      "åĩłç§į": 8242,
      "Wh": 8243,
      "çļĦåĲĮæĹ¶": 8244,
      "ä»ĸåĢĳ": 8245,
      "ĠSh": 8246,
      "Ġequ": 8247,
      "é¥®çĶ¨": 8248,
      "çļĦæĶ¿": 8249,
      "ially": 8250,
      "Ġåı¯ä»¥": 8251,
      "åľĭ": 8252,
      "ĠAl": 8253,
      "çļĦæķĳ": 8254,
      "Descriptor": 8255,
      "èĺĳ": 8256,
      "ĠæĢ»ç»ĵ": 8257,
      "Ġexpress": 8258,
      "èħ¾": 8259,
      "å¥¶éħª": 8260,
      "ires": 8261,
      "çī©èģĶç½ĳ": 8262,
      "æ£ĭ": 8263,
      "ired": 8264,
      "çĿ¡è§ī": 8265,
      "ĠwireType": 8266,
      "æĪĳæŃ£åľ¨": 8267,
      "ä¸Ńæī¾åĪ°": 8268,
      "åĩºèī²çļĦ": 8269,
      "è¯·éļıæĹ¶": 8270,
      "å·¥ä½ľåĴĮ": 8271,
      "alance": 8272,
      "æĵ¦": 8273,
      "addr": 8274,
      "çļĦçŁŃæĸĩ": 8275,
      "Ġsession": 8276,
      "èĺĳèıĩ": 8277,
      "ĠZ": 8278,
      "Ġoperation": 8279,
      "Ġ([]": 8280,
      "Ġsecond": 8281,
      "éŁ§": 8282,
      "çĭĹçļĦ": 8283,
      "Ġnetwork": 8284,
      "å¼ºåº¦": 8285,
      "queue": 8286,
      "Ġtool": 8287,
      "èĬ±æľµ": 8288,
      "è®°ä½ı": 8289,
      "é¥¼å¹²": 8290,
      "æ¸©å®¤æ°Ķä½ĵæİĴæĶ¾": 8291,
      "éĹ®çŃĶ": 8292,
      "åĳ¨æľŁ": 8293,
      "çļĦåĳ³éģĵ": 8294,
      "Ġtorch": 8295,
      "å§Ĳ": 8296,
      "ç¥ĸ": 8297,
      "è°¢è°¢ä½łçļĦ": 8298,
      "Ġterm": 8299,
      "çŃīäºİ": 8300,
      "Ġshow": 8301,
      "ä¸Ģç¯ĩåħ³äºİ": 8302,
      "Ġjavax": 8303,
      "èĨľ": 8304,
      "çļĦä½ľçĶ¨": 8305,
      "Ġcert": 8306,
      "èħĬ": 8307,
      "å©´": 8308,
      "æĺİçĻ½äºĨ": 8309,
      "gment": 8310,
      "æĺİäº®": 8311,
      "æĥħå¢ĥ": 8312,
      "éĢĤçĶ¨äºİ": 8313,
      "åĽºå®ļ": 8314,
      "æģĲæĢĸ": 8315,
      "éĢĨ": 8316,
      "åı¯ä»¥æıĲä¾Ľ": 8317,
      "éĤ»": 8318,
      "Process": 8319,
      "Ġaccount": 8320,
      "conv": 8321,
      "sock": 8322,
      "å¤·": 8323,
      "ï¼īï¼ļ": 8324,
      "æł¼å¼ı": 8325,
      "ç¢ĳ": 8326,
      "ä¿®å¤į": 8327,
      "çļĦçĮ«": 8328,
      "åĩºéĹ¨": 8329,
      "çĵ¦": 8330,
      "å¹³åĿĩåĪĨç»Ļ": 8331,
      "qa": 8332,
      "æĺĨ": 8333,
      "åŃ¦ä¹łç¼ĸç¨ĭ": 8334,
      "æİ¥è¿ĳ": 8335,
      "æ¥Ń": 8336,
      "åľ°åĲį": 8337,
      "åı¤è¯Ĺç»ŃåĨĻ": 8338,
      "ui": 8339,
      "å¤ķ": 8340,
      "åĩºåİ»": 8341,
      "Hel": 8342,
      "2018": 8343,
      "è¯Ĺäºº": 8344,
      "IND": 8345,
      "åĿĲåľ¨": 8346,
      "çĶµè§Ĩåī§": 8347,
      "å±ķç¤ºäºĨ": 8348,
      "ĠAuthenticated": 8349,
      "çļĦä¸įåĲĮ": 8350,
      "å¾Īå¤§çļĦ": 8351,
      "åĲ¬éŁ³ä¹Ĳ": 8352,
      "çĶ·äºº": 8353,
      "pring": 8354,
      "çļĦæĻ¯çĤ¹": 8355,
      "Window": 8356,
      "âĦ": 8357,
      "ç»Ļäºº": 8358,
      "éĿŀå¸¸éĢĤåĲĪ": 8359,
      "å¤ĩåıĹ": 8360,
      "çļĦæĻ®": 8361,
      "ä¸įèī¯": 8362,
      "åĲĳéĩı": 8363,
      "ĠOptional": 8364,
      "å¹¼": 8365,
      "Ġpermissions": 8366,
      "åĩºçīĪ": 8367,
      "ĠNo": 8368,
      "Enabled": 8369,
      "æ¾³": 8370,
      "bool": 8371,
      "æĺ¯è°ģ": 8372,
      "æ³ª": 8373,
      "åıįä¹īè¯į": 8374,
      "æ¼«æŃ¥": 8375,
      "mission": 8376,
      "è®ĵ": 8377,
      "çĽ¸å½ĵ": 8378,
      "åŀ«": 8379,
      "çİ°ä»£ç¤¾ä¼ļ": 8380,
      "ä¸įåŃĺåľ¨": 8381,
      "æķ°æį®åºĵ": 8382,
      "æıŃç¤º": 8383,
      "PrivLevel": 8384,
      "çļĦå½¢å¼ı": 8385,
      "è¿ģ": 8386,
      "change": 8387,
      "èĿ´": 8388,
      "çĶ³åħĭ": 8389,
      "éĻªä¼´": 8390,
      "èĤĸçĶ³åħĭ": 8391,
      "Option": 8392,
      "æĶĢ": 8393,
      "æ¶¨": 8394,
      "æıĲé«ĺäºĨ": 8395,
      "ynam": 8396,
      "éĶħä¸Ń": 8397,
      "èĿ´èĿ¶": 8398,
      "Mock": 8399,
      "è®¾è®¡ä¸Ģä¸ª": 8400,
      "æııåĨĻ": 8401,
      "ople": 8402,
      "æ²Ļåıĳ": 8403,
      "Min": 8404,
      "Storage": 8405,
      "æĪ¿å±ĭ": 8406,
      "å¥¥è¿Ĳä¼ļ": 8407,
      "æĺ¯ä¸Ģå®¶": 8408,
      "å·²æĪĲä¸º": 8409,
      "æ©ĺ": 8410,
      "Ġä»İæĸĩç«łä¸ŃæıĲåıĸ": 8411,
      "çıįæĥľ": 8412,
      "æ§": 8413,
      "åĲįåı«": 8414,
      "åŀĤ": 8415,
      "å»ºçŃĳçī©": 8416,
      "æĽ¿æį¢ä¸º": 8417,
      "Ġjust": 8418,
      "ĠĠĠĠĠĠĠĠĠĠĠĠĠĠĠĠĠĠĠĠĠĠĠĠĠĠĠĠĠĠĠĠ": 8419,
      "åĴĮè¡Įä¸º": 8420,
      "æŁľ": 8421,
      "éĢļå¸¸ä¼ļ": 8422,
      "çīĽä»Ķ": 8423,
      "yp": 8424,
      "88": 8425,
      "ls": 8426,
      "æ°¢": 8427,
      "Ġsur": 8428,
      "è¡¨è¿°": 8429,
      "Ġbeing": 8430,
      "ĠIs": 8431,
      "Ġconnect": 8432,
      "å¼ķäººåħ¥": 8433,
      "ç«Ł": 8434,
      "åıĹåĪ°äºĨ": 8435,
      "åľŁè±Ĩ": 8436,
      "çĺ¦": 8437,
      "åĴĮå¯¹": 8438,
      "æ³Ħ": 8439,
      "èī°": 8440,
      "è°ĭ": 8441,
      "ç§ĭåŃ£": 8442,
      "çľŁæŃ£çļĦ": 8443,
      "çļĦæŃĮæĽ²": 8444,
      "Ġ64": 8445,
      "æĺĤ": 8446,
      "éĢļè¿ĩå¯¹": 8447,
      "ready": 8448,
      "çļĦæľĢä½³": 8449,
      "åĲĦä¸ªé¢ĨåŁŁ": 8450,
      "å£³": 8451,
      "è¯Ńå¢ĥ": 8452,
      "åĲģ": 8453,
      "lear": 8454,
      "Ġbatch": 8455,
      "å¾Īå¤ļäºº": 8456,
      "èĪį": 8457,
      "Ġadv": 8458,
      "å¼ķäººåħ¥èĥľ": 8459,
      "åĬłå¯Ĩ": 8460,
      "Ġlaw": 8461,
      "è¢«è§Ĩä¸º": 8462,
      "ä½Ĩä¸į": 8463,
      "å¹²åĩĢ": 8464,
      "æ¿ĢçĥĪ": 8465,
      "Secret": 8466,
      "æĴ°åĨĻ": 8467,
      "false": 8468,
      "åĪĳ": 8469,
      "çĭ±": 8470,
      "èĢĥèĻĳåĪ°": 8471,
      "çļĦæĢ»ç»ĵ": 8472,
      "iddleware": 8473,
      "éĻĮçĶŁ": 8474,
      "çļĦä¾ĭåŃĲ": 8475,
      "çĲĥéĺŁ": 8476,
      "profile": 8477,
      "ä¸ĭéĿ¢çļĦæĸĩæľ¬": 8478,
      "çļĦåĲįç§°": 8479,
      "apter": 8480,
      "Ġwere": 8481,
      "æĺ¨æĻļ": 8482,
      ".\"\"\"": 8483,
      "åĴĮç»ıæµİ": 8484,
      "session": 8485,
      "éĿ¢ä¸´çĿĢ": 8486,
      "ĠWARRANTIES": 8487,
      "beta": 8488,
      "åĩıç¼ĵ": 8489,
      "Headers": 8490,
      "é½¿": 8491,
      "width": 8492,
      "ĠçĶŁæĪĲ": 8493,
      "çļĦçī¹å¾ģ": 8494,
      "å¤§çĨĬçĮ«": 8495,
      "ä¸ĢäºĽäºº": 8496,
      "Ġiss": 8497,
      "rix": 8498,
      "åĽ¾æ¡Ī": 8499,
      "åıĺå¾Ĺè¶ĬæĿ¥è¶Ĭ": 8500,
      "Ġcolor": 8501,
      "ĠJSON": 8502,
      "Open": 8503,
      "è¤": 8504,
      "åľ¨åĵªéĩĮ": 8505,
      "å¼ºåĮĸ": 8506,
      "è¿ĲèĲ¥": 8507,
      "Ġeven": 8508,
      "éĢĶå¾Ħ": 8509,
      "ged": 8510,
      "åĴĮåģ¥åº·": 8511,
      "ä¸ĭçļĦ": 8512,
      "èģĶçĽŁ": 8513,
      "Prefix": 8514,
      "src": 8515,
      "comp": 8516,
      "æĪĳæĥ³çŁ¥éģĵ": 8517,
      "ificate": 8518,
      "èĥľåľ°": 8519,
      "down": 8520,
      "xml": 8521,
      "æĨ": 8522,
      "åħ¼": 8523,
      "åĪĨè§£": 8524,
      "Ġprogram": 8525,
      "Logger": 8526,
      "Parse": 8527,
      "jango": 8528,
      "Rules": 8529,
      "ä¸Ģä¸ªéĹ®é¢ĺ": 8530,
      "Ġresp": 8531,
      "è´¾": 8532,
      "idence": 8533,
      "Ġexpression": 8534,
      "ç½Ĺé©¬": 8535,
      "protobuf": 8536,
      "Ġnoqa": 8537,
      "æĸĩèīº": 8538,
      "éĶĻè¿ĩ": 8539,
      "ä¿ĿæĬ¤æĪĳä»¬çļĦ": 8540,
      "çĤİçĥŃ": 8541,
      "'\");": 8542,
      "çŃĽ": 8543,
      "æĢ»ä½ĵ": 8544,
      "çĽĳæİ§": 8545,
      "Att": 8546,
      "çļĦçĬ¶æĢģ": 8547,
      "Protocol": 8548,
      "çĨŁæĤī": 8549,
      "åĨ¬å¤©": 8550,
      "ç§ĳåŃ¦å®¶ä»¬": 8551,
      "æľīæ°§": 8552,
      "åºĻ": 8553,
      "çİ¯ä¿ĿçļĦ": 8554,
      "æĥĳ": 8555,
      "åĩºä¸Ģä¸ª": 8556,
      "ErrUnexpected": 8557,
      "Ġskip": 8558,
      "Fe": 8559,
      "side": 8560,
      "æĿ¨": 8561,
      "imple": 8562,
      "å¾Īé«ĺåħ´": 8563,
      "æ©Ħæ¦Ħ": 8564,
      "03": 8565,
      "Ġ\\\"": 8566,
      "Ġmov": 8567,
      "æĪĳä»¬åľ¨": 8568,
      "pts": 8569,
      "äºīè®®": 8570,
      "âĦĥ": 8571,
      "åħ½": 8572,
      "äººä»¬å¯¹": 8573,
      "æ²ĥ": 8574,
      "rior": 8575,
      "pose": 8576,
      "late": 8577,
      "ä»¥å¸®åĬ©": 8578,
      "å¾Į": 8579,
      "ç®ĢåİĨ": 8580,
      "åĪĽéĢłä¸Ģä¸ª": 8581,
      "ErrUnexpectedEOF": 8582,
      "73": 8583,
      "ä½Ĩä¹Ł": 8584,
      "è¯¥åı¥åŃĲ": 8585,
      "æķ°æį®åĴĮ": 8586,
      "ru": 8587,
      "æĸĩè¨Ģ": 8588,
      "Ġpower": 8589,
      "è´·": 8590,
      "å¯Ĩåº¦": 8591,
      "éĩįè¦ģçļĦä½ľçĶ¨": 8592,
      "ä»Ķç»Ĩ": 8593,
      "Writer": 8594,
      "Ġextends": 8595,
      "Mut": 8596,
      "ks": 8597,
      "ä»¥åīį": 8598,
      "aging": 8599,
      "äººå·¥æĻºèĥ½æĬĢæľ¯åľ¨": 8600,
      "HOUT": 8601,
      "çļĦæ³ķå¾ĭ": 8602,
      "æĺ¯ä¸ĸçķĮä¸ĬæľĢ": 8603,
      "omic": 8604,
      "Load": 8605,
      "ç®¡çĲĨåĴĮ": 8606,
      "åģ¥èº«æĪ¿": 8607,
      "æľīæīĢä¸įåĲĮ": 8608,
      "Ġindic": 8609,
      "åıĳè¡¨": 8610,
      "çĶµåŃĲåķĨåĬ¡": 8611,
      "column": 8612,
      "æĸ¹ç¨ĭ": 8613,
      "æĹ¥çĽĬ": 8614,
      "Unmarshal": 8615,
      "å²ģçļĦ": 8616,
      "å®½æĿ¾": 8617,
      "hip": 8618,
      "options": 8619,
      "å¹¶ä½¿çĶ¨": 8620,
      "ĠTO": 8621,
      "ĠHe": 8622,
      "å°¿çĹħ": 8623,
      "æķ°æį®åĪĨæŀĲ": 8624,
      "Ġhttps": 8625,
      "åºŁå¼ĥ": 8626,
      "%ãĢĤ": 8627,
      "Ġview": 8628,
      "é£İåħī": 8629,
      "æĮĩæłĩ": 8630,
      "é«ĺçļĦå±±å³°": 8631,
      "åĬłåī§": 8632,
      "è¾ĥä¸º": 8633,
      "æ¸ł": 8634,
      "åĨħçļĦ": 8635,
      "501": 8636,
      "çļĦç¼ĸç¨ĭ": 8637,
      "åĻª": 8638,
      "å¸¦çĿĢ": 8639,
      "éŀĭåŃĲ": 8640,
      "ä¹Łèĥ½": 8641,
      "åıĸæ¶Ī": 8642,
      ".\",": 8643,
      "title": 8644,
      "æķĮ": 8645,
      "å¹¶è¾ĵåĩº": 8646,
      "Ġoften": 8647,
      "åĮ¹éħį": 8648,
      "æĳĦæ°ıåº¦": 8649,
      "ï¼ħ": 8650,
      "åĩıèĤ¥": 8651,
      "ç§ĺå¯Ĩ": 8652,
      "æĸĩè¨Ģæĸĩ": 8653,
      "æĪĳåİ»": 8654,
      "æľīæĹ¶åĢĻ": 8655,
      "å¥³åŃĲ": 8656,
      "Assert": 8657,
      "çİ«": 8658,
      "por": 8659,
      "çļĦåĴĸåķ¡": 8660,
      "å¥½åĥı": 8661,
      "Ġselect": 8662,
      "æĬĢæľ¯çļĦåıĳå±ķ": 8663,
      "ä¼ģä¸ļå®¶": 8664,
      "èĪªç©º": 8665,
      "Ġreq": 8666,
      "é£İæļ´": 8667,
      "ulti": 8668,
      "ĠThese": 8669,
      "é¢ĳçİĩ": 8670,
      "éĢıæ°Ķ": 8671,
      "Ġdbg": 8672,
      "Element": 8673,
      "ipe": 8674,
      "é¡Į": 8675,
      "æııè¿°ä¸Ģä¸ª": 8676,
      "ocial": 8677,
      "ä¸ĭéĿ¢çļĦåı¥åŃĲ": 8678,
      "copy": 8679,
      "only": 8680,
      "Ġprom": 8681,
      "åħįè´¹": 8682,
      "çļĦæ²Ļ": 8683,
      "éĩıåŃĲåĬĽåŃ¦": 8684,
      "ä½Ĩæĺ¯æĪĳ": 8685,
      "ç¿ħ": 8686,
      "åį±æľº": 8687,
      "Names": 8688,
      "Ġ);": 8689,
      "pth": 8690,
      "æł¹æį®ç»Ļå®ļçļĦæĸĩæľ¬": 8691,
      "èĥĸ": 8692,
      "çļĦæłĳ": 8693,
      "Ġcomplex": 8694,
      "ä¼į": 8695,
      "ç¬¬ä¸Ģæ¬¡": 8696,
      "è¾ĥé«ĺ": 8697,
      "ä¸Ģæ®µå¯¹è¯Ŀ": 8698,
      "æķħäºĭæĥħèĬĤ": 8699,
      "åł´": 8700,
      "validate": 8701,
      "]]": 8702,
      "å¾¡": 8703,
      "æł¹æį®èĩªå·±çļĦ": 8704,
      "åĸĦèī¯": 8705,
      "ssi": 8706,
      "rule": 8707,
      "æľ¬è´¨": 8708,
      "éľĢè¦ģè¿Ľè¡Į": 8709,
      "å²Ĺ": 8710,
      "å¿«éĢŁåıĳå±ķ": 8711,
      "åŃ¦ä¹łæĸ°": 8712,
      "åĪ«åŃĹ": 8713,
      "ĠUp": 8714,
      "åŀĥåľ¾éĤ®ä»¶": 8715,
      "èĨĢ": 8716,
      "Ġteam": 8717,
      "äººæĢ§": 8718,
      "åĬ¨æĢģ": 8719,
      "çī©æµģ": 8720,
      "çĶľçĤ¹": 8721,
      "èĥ¡æ¤Ĵ": 8722,
      "äººå·¥æĻºèĥ½åĴĮ": 8723,
      "è³ĩ": 8724,
      "FAULT": 8725,
      "any": 8726,
      "çļĦæķ´": 8727,
      "ç³ĸå°¿çĹħ": 8728,
      "å¹²æī°": 8729,
      "çļĦæ³¨": 8730,
      "ng": 8731,
      "æĪĲçĨŁ": 8732,
      "éĽĩ": 8733,
      "éĶĻåĪ«åŃĹ": 8734,
      "ĠLog": 8735,
      "åĴĮæĬĢèĥ½": 8736,
      "ä¼ĺéĽħ": 8737,
      "èŃ¦æĸ¹": 8738,
      "çĪ¶æ¯į": 8739,
      "=[": 8740,
      "pute": 8741,
      "éĺ³åħīæĺİåªļ": 8742,
      "ĠlocalVarHTTPResponse": 8743,
      "hook": 8744,
      "è¡Įé©¶": 8745,
      "å»ºè®®åĲĹ": 8746,
      "ä¹°äºĨä¸Ģ": 8747,
      "åıĳçİ°äºĨ": 8748,
      "çļĦæĬ¥": 8749,
      "çļĦåħ³éĶ®ä¿¡æģ¯": 8750,
      "è®©äººæĦŁåĪ°": 8751,
      "å¼ķèµ·äºĨ": 8752,
      "å¸ĿåĽ½": 8753,
      "ä»ĸä»¬ä¹ĭéĹ´": 8754,
      "åİĺç±³": 8755,
      "çļĦæ¤į": 8756,
      "Ġanal": 8757,
      "æİ¨è¿Ľ": 8758,
      "å¤±ä¸ļ": 8759,
      "åĳĪçİ°åĩº": 8760,
      "Ġ]": 8761,
      "email": 8762,
      "ç»Ļå®ļæĸĩæľ¬": 8763,
      "ç²®": 8764,
      "éĢĲæŃ¥": 8765,
      "inst": 8766,
      "æ²¡æľīä»»ä½ķ": 8767,
      "licenses": 8768,
      "ç¢³æİĴæĶ¾": 8769,
      "Ġrow": 8770,
      "çļĦè¡¨çİ°": 8771,
      "ä½łæĺ¯": 8772,
      "å½¢æĢģ": 8773,
      "çħ§é¡¾": 8774,
      "åŁºäºİä»¥ä¸ĭ": 8775,
      "æŁ¿": 8776,
      "è¿ĻäºĽéĥ½æĺ¯": 8777,
      "ĠIN": 8778,
      "Ġkwargs": 8779,
      "åĳ¼åĲģ": 8780,
      "çļĦç©ºæ°Ķ": 8781,
      "èķ´åĲ«": 8782,
      "ĸæģ¯åľ°": 8783,
      "è¯Ī": 8784,
      "ä¿Ŀæļĸ": 8785,
      "æĸ°éĹ»æłĩé¢ĺ": 8786,
      "ually": 8787,
      "æĿī": 8788,
      "æĮ¯": 8789,
      "settings": 8790,
      "é©¬æĭī": 8791,
      "åĿļå®ļ": 8792,
      "çĽĸèĮ¨": 8793,
      "éĴ¢çĲ´": 8794,
      "æŀģç«¯å¤©æ°Ķ": 8795,
      "å¤§å¤§": 8796,
      "è¿ĩæ»¤": 8797,
      "ational": 8798,
      "è¿Ļä¸ªæķħäºĭ": 8799,
      "æ¡¶": 8800,
      "çİ¯å¢ĥéĹ®é¢ĺ": 8801,
      "åĩłä¹İ": 8802,
      "åĪĨåĪ«æĺ¯": 8803,
      "ç»¼ä¸ĬæīĢè¿°": 8804,
      "02": 8805,
      "æĸ°æ¬¾": 8806,
      "uber": 8807,
      "èħ¹": 8808,
      "è±ĨèħĲ": 8809,
      "æĪĳä»Ĭå¤©": 8810,
      "çĤī": 8811,
      "èĥ¶": 8812,
      "connect": 8813,
      "çļĦæ¸©åº¦": 8814,
      "light": 8815,
      "æĪĳä»¬ä¼ļ": 8816,
      "æĪĳåĴĮ": 8817,
      "æĹ¦": 8818,
      "å¯Ħ": 8819,
      "æº¯": 8820,
      "Schema": 8821,
      "Ġä»¥ä¸ĭæĺ¯ä¸Ģéģĵå°ıåŃ¦æķ°åŃ¦é¢ĺ": 8822,
      "æºª": 8823,
      "è®¤åı¯": 8824,
      "ĠWe": 8825,
      "Utils": 8826,
      "amed": 8827,
      "çĳŁ": 8828,
      "å»ºç«ĭä¸Ģä¸ª": 8829,
      "å®ŀä½ĵè¯ĨåĪ«": 8830,
      "æ½ľåĬĽ": 8831,
      "CAST": 8832,
      "æĬĳéĥģ": 8833,
      "cfg": 8834,
      "æŀļ": 8835,
      "å¦Ĥä½ķåĪ¶ä½ľ": 8836,
      "Ġaccur": 8837,
      "å°ĩ": 8838,
      "å®¢æľį": 8839,
      "UID": 8840,
      "Ġknow": 8841,
      "éĿŀå¸¸æľī": 8842,
      "å¤ªå¤ļ": 8843,
      "çĶŁæĢģçİ¯å¢ĥ": 8844,
      "ä¸ĭåĳ¨": 8845,
      "çļĦç¡": 8846,
      "Ġrandom": 8847,
      "å§Ĩæĸ¯": 8848,
      "IO": 8849,
      "number": 8850,
      "vision": 8851,
      "çŃīå¤ļä¸ª": 8852,
      "åĢ¡": 8853,
      "Reader": 8854,
      "å®³æĢķ": 8855,
      "graph": 8856,
      "èĵĿèī²çļĦ": 8857,
      "PC": 8858,
      "Wrap": 8859,
      "æĺ¯ä¸ºäºĨ": 8860,
      "Ġnet": 8861,
      "ĠGener": 8862,
      "è¡¥åħħ": 8863,
      "Ġä½łèĥ½": 8864,
      "åĴĮèĶ¬èıľ": 8865,
      "ä¸ºæĪĳä»¬": 8866,
      "æĪĸç¼º": 8867,
      "åĲİçļĦåı¥åŃĲ": 8868,
      "å¾®ç¬ĳ": 8869,
      "UE": 8870,
      "çļĦå¸®åĬ©": 8871,
      "Stack": 8872,
      "Ġcompliance": 8873,
      "å¯¹å¾ħ": 8874,
      "å§ľ": 8875,
      "Ġavailable": 8876,
      "çİ«çĳ°": 8877,
      "çļĦåľºæĻ¯": 8878,
      "çīĩæ®µ": 8879,
      "åĩĨå¤ĩå¥½": 8880,
      "ç·": 8881,
      "ä¸»åĬ¨": 8882,
      "èĶ¬èıľåĴĮ": 8883,
      "ategory": 8884,
      "idden": 8885,
      "åĴĮå°ı": 8886,
      "çĲ³": 8887,
      "å¸ĤåľºèĲ¥éĶĢ": 8888,
      "é¸ŁåĦ¿": 8889,
      "å¿ĥèĦıçĹħ": 8890,
      "Sign": 8891,
      "ding": 8892,
      "pod": 8893,
      "åĴĮèµĦæºĲ": 8894,
      "æĺŁæĺŁ": 8895,
      "ĠDo": 8896,
      "çļĦæķ°åŃ¦": 8897,
      "éĶ»çĤ¼èº«ä½ĵ": 8898,
      "Component": 8899,
      "ĠéĩįåĨĻä»¥ä¸ĭåı¥åŃĲ": 8900,
      "åĳĢ": 8901,
      "sql": 8902,
      "Ġinfl": 8903,
      "æķ°æį®è¿Ľè¡Į": 8904,
      "Ġchanges": 8905,
      "å©ļç¤¼": 8906,
      "Ġvalidate": 8907,
      "required": 8908,
      "æĦıå¤ĸ": 8909,
      "åı¯ä»¥å¸®åĬ©åĮ»çĶŁ": 8910,
      "hav": 8911,
      "ĊĠĠĠĠĠĠĠĠĠĠĠĠĠ": 8912,
      "æĽ´åħ·": 8913,
      "ä¿¡å¿ĥ": 8914,
      "ç´łé£Ł": 8915,
      "æĪĳä»¬åı¯ä»¥çĶ¨": 8916,
      "åĮ»åŃ¦å½±åĥı": 8917,
      "\"],": 8918,
      "irc": 8919,
      "Ġright": 8920,
      "çĥ¤ç®±": 8921,
      "éģĹä¼ł": 8922,
      "ros": 8923,
      "Ġimplied": 8924,
      "\\\":\\\"": 8925,
      "save": 8926,
      "èĬĤçľģ": 8927,
      "Ġparser": 8928,
      "æ¯ıä¸ªäººéĥ½åºĶè¯¥": 8929,
      "çļĦæķĳèµİ": 8930,
      "otion": 8931,
      "å¦ĤæŀľæĪĳä»¬": 8932,
      "å¹½é»ĺ": 8933,
      "è¯·æ³¨æĦı": 8934,
      "è®©è®¡ç®Ĺæľº": 8935,
      "Report": 8936,
      "Ġlogger": 8937,
      "è¸ı": 8938,
      "èĬĿå£«": 8939,
      "æľĪäº®": 8940,
      "è¿Ļæ®µè¯Ŀ": 8941,
      "åĺ´": 8942,
      "67": 8943,
      "ç»ıèĲ¥": 8944,
      "çĶµå½±åĲįç§°": 8945,
      "ä¸Ģåħ±": 8946,
      "Ġaud": 8947,
      "å®ļå¾ĭ": 8948,
      "ä¹ĭä¸Ń": 8949,
      "èĥĥ": 8950,
      "çĸ¾çĹħçļĦ": 8951,
      "ç»Ŀå¯¹": 8952,
      "iff": 8953,
      "åİŁæĿ¥": 8954,
      "ç¿Ķ": 8955,
      "æĹħæ¸¸æĻ¯çĤ¹": 8956,
      "æĿ¥åĩıå°ĳ": 8957,
      "å®ĥä»¬åľ¨": 8958,
      "Ġä»İæĸĩç«łä¸ŃæıĲåıĸåĩº": 8959,
      "åī©ä½Ļ": 8960,
      "çļĦç¤¼": 8961,
      "åĩºçİ°åľ¨": 8962,
      "åĬŀæ³ķ": 8963,
      "æĤłä¹ħ": 8964,
      "çļĦåĬŁèĥ½": 8965,
      "del": 8966,
      "éļĨ": 8967,
      "anel": 8968,
      "è®©ä»ĸä»¬": 8969,
      "ä¸ĸçķĮä¸Ĭ": 8970,
      "ä¸Ģæ¬¡æĢ§": 8971,
      "Timeout": 8972,
      "function": 8973,
      "çļĦä¸ľè¥¿": 8974,
      "å¹¶å¯¹": 8975,
      "Ġhere": 8976,
      "æĪĲä¸ºä¸Ģä¸ª": 8977,
      "åĳ½ä»¤": 8978,
      "Ġapp": 8979,
      "parameters": 8980,
      "çĶŁäº§åĬĽ": 8981,
      "ç»ĵæŀĦåĴĮ": 8982,
      "çıŃçīĻ": 8983,
      "çļĦæīĭæľº": 8984,
      "å¡ĳæĸĻè¢ĭ": 8985,
      "çļĦæĽ´": 8986,
      "Fail": 8987,
      "åķ¦": 8988,
      "Ġelements": 8989,
      "è¥¿çıŃçīĻ": 8990,
      "čĊč": 8991,
      "ares": 8992,
      "æĿ¥å¸®åĬ©": 8993,
      "å¤ļå¹´": 8994,
      "ĠFile": 8995,
      "çļĦæµ·æ»©": 8996,
      "æ·±è¿ľçļĦå½±åĵį": 8997,
      "Ġapplicable": 8998,
      "Ġelement": 8999,
      "web": 9000,
      "istory": 9001,
      "åĽ´ç»ķ": 9002,
      "å¿ĹæĦ¿": 9003,
      "duction": 9004,
      "Ġparse": 9005,
      "è½¨éģĵ": 9006,
      "parent": 9007,
      "87": 9008,
      "çļĦä»£è¡¨": 9009,
      "ä¸ĭä¸Ģä¸ª": 9010,
      "ä»£è°¢": 9011,
      "æĶ¹éĿ©": 9012,
      "1234": 9013,
      "æłĳæľ¨": 9014,
      "æ¯ıä¸ªäººçļĦ": 9015,
      "switch": 9016,
      "ĠKIND": 9017,
      "çļĦä¸»è¦ģè§ĤçĤ¹æĺ¯": 9018,
      "åĪ¸": 9019,
      "Ġè¯·éĹ®": 9020,
      "æĺ¾å¾Ĺ": 9021,
      "éĺ¿çĶĺ": 9022,
      "ç§ĳå¹»å°ıè¯´": 9023,
      "ç»³": 9024,
      "å¤ļæ¬¡": 9025,
      "æĸ°åĨł": 9026,
      "Ġå°Ĩä»¥ä¸ĭåı¥åŃĲ": 9027,
      "å®ĺæĸ¹": 9028,
      "çļĦæ°ĶåĢĻ": 9029,
      "çŁ¶": 9030,
      "åĲİæĿ¥": 9031,
      "åľ¨åħ¬åĽŃéĩĮ": 9032,
      "åĮĻ": 9033,
      "å¤§æĪĺ": 9034,
      "å½ĵæĪĳä»¬": 9035,
      "èŀįåħ¥": 9036,
      "åĲ¦å®ļ": 9037,
      "ç¿ł": 9038,
      "è´¦æĪ·": 9039,
      "FS": 9040,
      "space": 9041,
      "åĴĮæµ·": 9042,
      "æĦģ": 9043,
      "ä¹ĲæĦı": 9044,
      "èĥĨ": 9045,
      "å®īåħ¨æĢ§": 9046,
      "ä¸įåı¯æĪĸç¼º": 9047,
      "close": 9048,
      "ä»¥åĲİ": 9049,
      "å¹¶ç¡®ä¿Ŀ": 9050,
      "å½ĵæĪĳ": 9051,
      "ç»Ĩèħ»": 9052,
      "ä¸ºä¸Ģä¸ª": 9053,
      "æ´Ĵ": 9054,
      "çĸı": 9055,
      "irtual": 9056,
      "çĶŁæ´»åľ¨": 9057,
      "çİĭæĺŁ": 9058,
      "Plugin": 9059,
      "Function": 9060,
      "çļĦé¢ĨåŁŁ": 9061,
      "Ġpop": 9062,
      "med": 9063,
      "sort": 9064,
      "åĩıå°ĳä½¿çĶ¨": 9065,
      "ĠOn": 9066,
      "cn": 9067,
      "unit": 9068,
      "å¤ĸè§Ĥ": 9069,
      "æ¯Ķä¾ĭ": 9070,
      "å¹¿éĺĶ": 9071,
      "ä¸Ģä¸ĭè¿Ļç¯ĩæĸĩç«ł": 9072,
      "çļĦéĢŁåº¦": 9073,
      "property": 9074,
      "active": 9075,
      "network": 9076,
      "çļĦç½ĳç«Ļ": 9077,
      "tf": 9078,
      "çĶ¢": 9079,
      "èĮ«": 9080,
      "ç§ĳæĬĢåħ¬åı¸": 9081,
      "Button": 9082,
      "æĽ´æŃ£": 9083,
      "åĮħåĲ«äºĨ": 9084,
      "StatusCode": 9085,
      "ç»µ": 9086,
      "real": 9087,
      "è¿Ļä¸¤": 9088,
      "Ġ[\"": 9089,
      "åĳ½åĲį": 9090,
      "èĤ©": 9091,
      "Ġgu": 9092,
      "åħ¶ä»ĸäºº": 9093,
      "éĩįè¦ģä½ľçĶ¨": 9094,
      "æ©Ł": 9095,
      "Limit": 9096,
      "çļĦå®ļä¹ī": 9097,
      "è§Ĵèī²ä»ĭç»į": 9098,
      "5555": 9099,
      "VER": 9100,
      "gor": 9101,
      "Ġkeep": 9102,
      "Ġload": 9103,
      "æīĢéľĢçļĦ": 9104,
      "Layout": 9105,
      "çļĦä½ĵéªĮ": 9106,
      "æĢ§è´¨": 9107,
      "ä»İä¸Ń": 9108,
      "abs": 9109,
      "ä¼ĺç¾İ": 9110,
      "vari": 9111,
      "åħ´è¶£çĪ±å¥½": 9112,
      "Ġpossible": 9113,
      "Color": 9114,
      "æĤ²ä¼¤": 9115,
      "å°ıæĺİåĴĮå°ıçº¢": 9116,
      "37": 9117,
      "EX": 9118,
      "çªģçł´": 9119,
      "èı²å°Ķ": 9120,
      "èĤĸçĶ³åħĭçļĦæķĳèµİ": 9121,
      "Ġpy": 9122,
      "æķ°æį®ä¸Ń": 9123,
      "ĊĠĠĠĠĊĠĠĠ": 9124,
      "Ġlength": 9125,
      "æ¡ĮåŃĲ": 9126,
      "æģĴæĺŁ": 9127,
      "åĬłå·¥": 9128,
      "çĥĺ": 9129,
      "åĩıåİ»": 9130,
      "å¹²æĹ±": 9131,
      "Application": 9132,
      "æĭħä»»": 9133,
      "Ġincluding": 9134,
      "49": 9135,
      "xef": 9136,
      "æĢ§æł¼": 9137,
      "encod": 9138,
      "Ġparameters": 9139,
      "çļĦæ°Ķæģ¯": 9140,
      "Ġtak": 9141,
      "èĻ¾": 9142,
      "ä»Ĭå¤©çļĦå¤©æ°Ķ": 9143,
      "è¿Ļæĺ¯ä¸Ģéĥ¨": 9144,
      "çļĦç¬ĳ": 9145,
      "curity": 9146,
      "è¿ĻäºĽæĬĢæľ¯": 9147,
      "åħĭæĸ¯": 9148,
      "ĠThey": 9149,
      "Ġmaking": 9150,
      "æĸĩæľ¬éĶĻè¯¯è¿Ľè¡Į": 9151,
      "lines": 9152,
      "æľĢéĢĤåĲĪ": 9153,
      "è¢Ń": 9154,
      "ivers": 9155,
      "çļĦäººçī©": 9156,
      "å®ĿèĹı": 9157,
      "åĿļæŀľ": 9158,
      "RuleSuppression": 9159,
      "iness": 9160,
      "æ¯Ķäºļ": 9161,
      "å¥¹åľ¨": 9162,
      "ibr": 9163,
      "ways": 9164,
      "çļĦåŃ£èĬĤ": 9165,
      "Ġctx": 9166,
      "Ġsw": 9167,
      "éĥ½å¾Ī": 9168,
      "ä¸ĸçķĮçļĦ": 9169,
      "æĹ©æĻ¨": 9170,
      "Json": 9171,
      "Ġsys": 9172,
      "Ġben": 9173,
      "ç³Ł": 9174,
      "æĭĵå±ķ": 9175,
      "è¡¬è¡«": 9176,
      "çļĦç¨ĭåºı": 9177,
      "Ġ{\"": 9178,
      "imate": 9179,
      "ä¹Łå°Ĩ": 9180,
      "Controller": 9181,
      "å¼ķèµ·çļĦ": 9182,
      "ç»ĺçĶ»": 9183,
      "èªīä¸º": 9184,
      ".(*": 9185,
      "äººæķ°": 9186,
      "Ġcmd": 9187,
      "çĽ¸çŃī": 9188,
      "èµĦäº§": 9189,
      "éĨĭ": 9190,
      "è¿Ŀåıį": 9191,
      "CL": 9192,
      "java": 9193,
      "ä»ĩ": 9194,
      "åı¯ä»¥çĶ¨æĿ¥": 9195,
      "å¸ĮèħĬ": 9196,
      "åĨĽäºĭ": 9197,
      "åĩĮ": 9198,
      "Ġdescri": 9199,
      "ç¼ĸç¨ĭè¯Ńè¨Ģ": 9200,
      "Ġcalled": 9201,
      "Ġopts": 9202,
      "remove": 9203,
      "æĢĴ": 9204,
      "Ġmost": 9205,
      "æ·±æ·±": 9206,
      "è¿Ļæł·åı¯ä»¥": 9207,
      "Ġarg": 9208,
      "æĽ´å¤§çļĦ": 9209,
      "Ext": 9210,
      "äºĳè®¡ç®Ĺ": 9211,
      "å¼¯": 9212,
      "ä¸įçĶ¨": 9213,
      "å¹´äºº": 9214,
      "çļĦç¾İæĻ¯": 9215,
      "Criteria": 9216,
      "\\\",": 9217,
      "æľīäºĨ": 9218,
      "çļĦæĤ": 9219,
      "å°±èĥ½": 9220,
      "åºıåĪĹ": 9221,
      "ĠHTTP": 9222,
      "èµ°äºĨ": 9223,
      "Ġcalcul": 9224,
      "çļĦè§ĤçĤ¹": 9225,
      "Ġ19": 9226,
      "æ¢ģ": 9227,
      "æĸĩæ¡ĪçĶŁæĪĲ": 9228,
      "ä¸įéĶĻçļĦéĢīæĭ©": 9229,
      "ç»ŃåĨĻåı¤è¯Ĺ": 9230,
      "Ġcreated": 9231,
      "ç¿»è¯ĳæĪĲçİ°ä»£": 9232,
      "çį": 9233,
      "imer": 9234,
      "æ¯Ķçī¹": 9235,
      "æľ¨æĺŁ": 9236,
      "å®´": 9237,
      "replace": 9238,
      "iment": 9239,
      "å¹³éĿĻ": 9240,
      "è¿ĳæľŁ": 9241,
      "å®ĮæĪĲä»»åĬ¡": 9242,
      "ç±»ä¼¼äºİ": 9243,
      "Ġlocation": 9244,
      "Ġcharacter": 9245,
      "300": 9246,
      "åıī": 9247,
      "åı¯è¯»": 9248,
      "ä¸Ĭæĺł": 9249,
      "Ġbl": 9250,
      "ĠPr": 9251,
      "Ġbytes": 9252,
      "ĠRun": 9253,
      "çļĦæĢĿèĢĥ": 9254,
      "jor": 9255,
      "ories": 9256,
      "éĿ¢ç²ī": 9257,
      "åİ»åħ¬åĽŃ": 9258,
      "åĽŀçŃĶä¸ĭéĿ¢": 9259,
      "energy": 9260,
      "ä½łåı¯ä»¥å°Ŀè¯ķ": 9261,
      "ixed": 9262,
      "çļĦæ¯ĶèµĽ": 9263,
      "åĴĮçĽ®æłĩ": 9264,
      "Ġcult": 9265,
      "çĶŁæ¶¯": 9266,
      "éľĢè¦ģåľ¨": 9267,
      "ç¾İå¦Ļ": 9268,
      "è¿ŀè´¯": 9269,
      "æĪĸæĺ¯": 9270,
      "åĽłä¸ºæĪĳ": 9271,
      "Ġcost": 9272,
      "Ġdest": 9273,
      "Ġown": 9274,
      "é»Ľ": 9275,
      "æ°Ľ": 9276,
      "ä¸ĵéĹ¨": 9277,
      "æ¯Ķå¦Ĥè¯´": 9278,
      "æ²³æµģ": 9279,
      "çļĦæİĴæĶ¾": 9280,
      "Template": 9281,
      "filename": 9282,
      "Ġinfo": 9283,
      "æģ°": 9284,
      "Ġgoverning": 9285,
      "åĽŀçŃĶä»¥ä¸ĭéĹ®é¢ĺ": 9286,
      "è¯¦ç»ĨçļĦ": 9287,
      "ç¿»è¯ĳæĪĲçİ°ä»£æĸĩ": 9288,
      "Found": 9289,
      "KE": 9290,
      "æ¯ıä¸Ģä¸ª": 9291,
      "ä¿ĿæĮģèº«ä½ĵåģ¥åº·": 9292,
      "æĶ¶åĪ°": 9293,
      "LP": 9294,
      "match": 9295,
      "LICENSE": 9296,
      "æĭ¯": 9297,
      "æĮº": 9298,
      "channel": 9299,
      "äºĨä¸Ģåľº": 9300,
      "æĤ¨åı¯ä»¥åľ¨": 9301,
      "Desc": 9302,
      "ital": 9303,
      "å¿į": 9304,
      "è¯¦ç»ĨåĽŀçŃĶ": 9305,
      "lang": 9306,
      "Ġfail": 9307,
      "Ġ16": 9308,
      "åŁºäºİä»¥ä¸Ĭè¿Ļæ®µæĸĩæľ¬": 9309,
      "åħ¨éĥ¨": 9310,
      "ç²¾èĩ´": 9311,
      "System": 9312,
      "åīĳ": 9313,
      "æĢİä¹Īåģļ": 9314,
      "åĮĹäº¬å¸Ĥ": 9315,
      "æĦŁè°¢æĤ¨": 9316,
      "ArrayOutput": 9317,
      "send": 9318,
      "Ġdescription": 9319,
      "çİ¯å¢ĥä¸Ń": 9320,
      "æĮĩä»¤": 9321,
      "èĢģäºº": 9322,
      "grid": 9323,
      "Ġtag": 9324,
      "ç¥ŀå¥ĩ": 9325,
      "ç»ĦæĪĲçļĦ": 9326,
      "Ġvarious": 9327,
      "Role": 9328,
      "Over": 9329,
      "å¤ļå½©": 9330,
      "é«ĺæ¸©": 9331,
      "äººä»¬åľ¨": 9332,
      "çĶ¨æĪ·çļĦ": 9333,
      "Ġshape": 9334,
      "ior": 9335,
      "main": 9336,
      "æ°Ķè±¡": 9337,
      "æ¶Į": 9338,
      "å°ıæĺİå®¶": 9339,
      "åıĳçĶŁåľ¨": 9340,
      "netes": 9341,
      "ubernetes": 9342,
      "ä¸Ģå°ģ": 9343,
      "è¿Ļæľ¬": 9344,
      "å¹¶æıĲé«ĺ": 9345,
      "äººå·¥æĻºèĥ½å°Ĩ": 9346,
      "è¾¾æĪĲ": 9347,
      "Ġconnection": 9348,
      "ĠBAS": 9349,
      "...)": 9350,
      "èµ¢å¾ĹäºĨ": 9351,
      "vis": 9352,
      "éĩįè¦ģæĢ§": 9353,
      "ä»İäºĭ": 9354,
      "Ġadditional": 9355,
      "æ¸´": 9356,
      "ĠAp": 9357,
      "èĪĴéĢĤçļĦ": 9358,
      "åľ°åĮºçļĦ": 9359,
      "å¥ĸåĬ±": 9360,
      "èĢĲå¿ĥ": 9361,
      "éĻĪè¿°åı¥": 9362,
      "çĶµå½±è¯Ħè®º": 9363,
      "åı¯ä»¥å¸®åĬ©æĤ¨": 9364,
      "æĹĭå¾ĭ": 9365,
      "lex": 9366,
      "\",\"": 9367,
[...]
